<pad>	0
<unk>	0
<s>	0
</s>	0
▁አ	-0
▁እ	-1
▁ነ	-2
▁በ	-3
▁የ	-4
▁መ	-5
▁ይ	-6
▁እን	-7
▁ነው	-8
ም።	-9
ለሁ	-10
ቶም	-11
▁ለ	-12
▁ያ	-13
▁ማ	-14
▁ቶም	-15
▁ከ	-16
ል።	-17
▁ነው።	-18
▁ተ	-19
ምን	-20
ለሁ።	-21
▁ብ	-22
▁ወ	-23
▁ስ	-24
▁አይ	-25
▁ነበ	-26
▁ት	-27
▁እንደ	-28
▁አል	-29
▁ሰ	-30
▁አለ	-31
ፈል	-32
▁ይህ	-33
▁ነበር	-34
▁ው	-35
ገር	-36
▁ምን	-37
▁ሁ	-38
▁ላ	-39
ዚህ	-40
▁ል	-41
ጣም	-42
ጊዜ	-43
▁በጣም	-44
ኝ።	-45
▁ነበር።	-46
▁አን	-47
ውን	-48
▁ላይ	-49
▁ጥ	-50
▁ጊዜ	-51
▁አስ	-52
ስጥ	-53
▁ወደ	-54
▁ደ	-55
▁ውስጥ	-56
▁ቀ	-57
▁ነገር	-58
ችን	-59
ፈልጋ	-60
▁የሚ	-61
ችላ	-62
ነት	-63
ለህ	-64
ድረ	-65
መስ	-66
▁ም	-67
▁አይደ	-68
▁ይህን	-69
▁ገ	-70
ሁን	-71
ት።	-72
▁እና	-73
ው።	-74
▁እየ	-75
▁ቤ	-76
▁አላ	-77
▁ብዙ	-78
ን።	-79
ደር	-80
▁ለመ	-81
ሆን	-82
ሆነ	-83
▁የተ	-84
▁ጠ	-85
▁ሁሉ	-86
ች።	-87
ዎች	-88
ድረግ	-89
▁ታ	-90
ዋል።	-91
ችል	-92
▁እንዳ	-93
▁ጋ	-94
▁ግ	-95
▁አለብ	-96
▁የም	-97
ለው	-98
▁ማን	-99
▁ባ	-100
▁ለማ	-101
▁ሰው	-102
▁ፈ	-103
▁አንድ	-104
▁ጋር	-105
▁አሁን	-106
▁ስለ	-107
ንድ	-108
ሄድ	-109
▁እሱ	-110
▁እፈልጋ	-111
▁ምንም	-112
▁ጥሩ	-113
ውቅ	-114
▁ማድረግ	-115
ውቃ	-116
▁በአ	-117
ስተ	-118
▁ያን	-119
ኝም።	-120
▁ቤት	-121
▁ሊ	-122
▁ብቻ	-123
▁በእ	-124
ኛል።	-125
▁ይመስ	-126
▁ክ	-127
ቸው	-128
▁እኔ	-129
▁የለ	-130
ርያ	-131
▁አይደለ	-132
▁እዚህ	-133
ስት	-134
በት	-135
▁እር	-136
ሳይ	-137
▁ለምን	-138
▁ና	-139
ዋል	-140
▁ዛ	-141
ህን	-142
ዴት	-143
ዚያ	-144
ደረ	-145
ፈልግ	-146
ንት	-147
ገና	-148
▁ያንን	-149
▁ያለ	-150
ነበ	-151
▁እንዲ	-152
▁ከእ	-153
ቅር	-154
▁ይችላ	-155
▁እንዴት	-156
ቱን	-157
ሁ።	-158
ወዳ	-159
▁የእ	-160
ግር	-161
▁መን	-162
ኹዋ	-163
ሰራ	-164
ለት	-165
የት	-166
▁ካ	-167
▁ነገ	-168
▁ድ	-169
▁የማ	-170
▁አት	-171
▁የት	-172
▁ዛሬ	-173
▁አመ	-174
▁በመ	-175
ችልም።	-176
ህል	-177
▁እንድ	-178
ገባ	-179
ራት	-180
▁ቦ	-181
ረን	-182
▁ሁሉም	-183
ሰማ	-184
▁ትን	-185
ርያም	-186
▁እንደሚ	-187
▁እያ	-188
ሉ።	-189
▁ብዬ	-190
ተኛ	-191
▁የመ	-192
ለች።	-193
▁ጉ	-194
ፊት	-195
▁እስ	-196
መለ	-197
▁ሳ	-198
ሪያ	-199
▁ፍ	-200
ችሁ	-201
▁ቆ	-202
ድር	-203
▁ሀ	-204
ውቅም።	-205
▁እፈልጋለሁ።	-206
▁ትንሽ	-207
▁ቁ	-208
▁ዝ	-209
ላል	-210
▁እባ	-211
ኹዋላ	-212
▁ያህል	-213
▁ዘ	-214
ትን	-215
ህ።	-216
ስዎ	-217
▁አያ	-218
▁ች	-219
ንዘ	-220
▁የአ	-221
ምህ	-222
▁ሞ	-223
ኩ።	-224
▁ያስ	-225
▁ግን	-226
ጣት	-227
▁መስ	-228
▁ነኝ።	-229
ኪና	-230
ናል።	-231
▁ሌ	-232
ለን።	-233
ጀመ	-234
ዋን	-235
▁ሙ	-236
ቸው።	-237
ርት	-238
ጓደ	-239
▁ስራ	-240
ባት	-241
▁በኹዋላ	-242
▁መጠ	-243
▁በዚህ	-244
▁እንደሆነ	-245
▁ገንዘ	-246
▁ሲ	-247
▁ክፍ	-248
ገረ	-249
ፈልገ	-250
ለኛል።	-251
አት	-252
ንም	-253
▁አውቃ	-254
ሰብ	-255
ቶች	-256
▁ን	-257
▁ሥ	-258
▁ቢ	-259
ረንሳይ	-260
▁መጽ	-261
ገድ	-262
▁አይደለም።	-263
መጣ	-264
▁ከአ	-265
ረዳ	-266
▁አልችልም።	-267
▁ሰዎች	-268
ክል	-269
ማሪ	-270
▁አሉ	-271
▁ጓደ	-272
ናገር	-273
ናል	-274
▁እፈልጋለሁ	-275
▁ይመስለኛል።	-276
▁ነበረ	-277
▁እነ	-278
ኘት	-279
ጨረ	-280
▁ይህንን	-281
ዬን	-282
▁ተስ	-283
ደርጋ	-284
▁የሚያ	-285
ነበረ	-286
ንተ	-287
▁ማርያም	-288
ወት	-289
▁እንዳለ	-290
ፈለ	-291
▁የበ	-292
▁አውቃለሁ።	-293
▁እንደም	-294
▁እችላ	-295
ረንሳይኛ	-296
▁ለእ	-297
ላል።	-298
ዎት	-299
▁መኪና	-300
▁አላውቅም።	-301
ታው	-302
▁አው	-303
ላት	-304
ልቅ	-305
ዎን	-306
▁ማንም	-307
▁በፊት	-308
▁ገንዘብ	-309
▁መል	-310
▁መሆን	-311
▁መጽሀ	-312
ውነት	-313
▁መሄድ	-314
ገኘ	-315
▁የሆነ	-316
ዎችን	-317
ሮች	-318
▁ትና	-319
▁ከመ	-320
▁አሳ	-321
ላይ	-322
▁ተስፋ	-323
▁ልጅ	-324
▁ረ	-325
ኩም።	-326
▁አንዳ	-327
ታል	-328
ቁዋ	-329
▁ቦታ	-330
▁አስተ	-331
▁ይፈልጋ	-332
ቱዋል።	-333
ፈልግም።	-334
ቻለሁ።	-335
▁አይነት	-336
ምህርት	-337
▁እባክ	-338
በላ	-339
▁በማ	-340
ወቅ	-341
▁ቃ	-342
▁ጨ	-343
ኛው	-344
▁የምት	-345
ደው	-346
▁ፈረንሳይኛ	-347
ለን	-348
ድን	-349
▁ሰአት	-350
▁ሆ	-351
▁ባለ	-352
▁ህ	-353
▁ሌላ	-354
▁ትናንት	-355
ደርግ	-356
▁ጎ	-357
▁ትችላ	-358
▁ኮ	-359
▁አስባ	-360
▁እየተ	-361
▁ጉዳ	-362
▁ናቸው።	-363
▁አልነበረ	-364
▁አደ	-365
ሩን	-366
ግብ	-367
▁ቅ	-368
ያው	-369
▁ሥራ	-370
ዋለሁ።	-371
▁ችግር	-372
▁አሁንም	-373
▁ሁል	-374
ኛል	-375
ግጠ	-376
መን	-377
ቀም	-378
▁ሁኔ	-379
ታት	-380
▁እወዳ	-381
ሳብ	-382
ሃል	-383
ወስ	-384
ተት	-385
▁ተመ	-386
ለጠ	-387
▁አይደለም	-388
▁እችላለሁ	-389
▁ቀን	-390
▁ከዚህ	-391
ቀጥ	-392
ኩት።	-393
▁በላይ	-394
ታል።	-395
ፍት	-396
ረው	-397
▁ዋ	-398
▁አንዳንድ	-399
▁አብ	-400
ወድ	-401
▁ሄ	-402
▁ልጆ	-403
▁አድር	-404
ክክል	-405
▁አለኝ።	-406
ማር	-407
▁ወይ	-408
ቻል	-409
▁በት	-410
▁እንደማ	-411
ርስዎ	-412
ጨረሻ	-413
ኑን	-414
ከር	-415
▁በተ	-416
▁በፍ	-417
▁መንገድ	-418
ጠብ	-419
▁የለኝም።	-420
ነው	-421
▁ምክ	-422
▁ተና	-423
▁ጣ	-424
▁አልተ	-425
ቀመ	-426
▁ከባ	-427
ቤት	-428
▁ሁኔታ	-429
የቀ	-430
▁ናቸው	-431
ኖር	-432
▁ቶምን	-433
▁ራ	-434
▁መጽሀፍ	-435
▁አዲ	-436
ስተኛ	-437
▁አይመስ	-438
▁እንድት	-439
▁ሙሉ	-440
▁አይደል	-441
ቹን	-442
ለህ።	-443
ሄዳ	-444
▁ጓደኛ	-445
ናት	-446
ብኝ	-447
▁የበለጠ	-448
▁አለብኝ።	-449
▁አስባለሁ።	-450
▁በሚ	-451
ድረስ	-452
▁መጥ	-453
በቅ	-454
▁እርግጠ	-455
ውነ	-456
ሳት	-457
ያቄ	-458
ሱን	-459
▁ይመስላል።	-460
▁እመ	-461
▁ይሆ	-462
▁እርግጠኛ	-463
▁ማታ	-464
▁ለአ	-465
ንያ	-466
▁ቡ	-467
ንግ	-468
▁መቼ	-469
▁እንግ	-470
▁እወዳለሁ።	-471
▁አልፈልግም።	-472
ንብ	-473
▁ታውቃ	-474
▁አለ።	-475
▁እንደገና	-476
▁ትልቅ	-477
▁አባ	-478
ጀመሪያ	-479
ሴት	-480
▁ከተ	-481
▁ደስተኛ	-482
▁አመት	-483
▁ከባድ	-484
ስታ	-485
▁ፖ	-486
▁አንተ	-487
ከተ	-488
▁ጥያቄ	-489
ግኘት	-490
ወጣ	-491
ዳት	-492
▁ነች።	-493
ስተን	-494
▁አደርጋ	-495
ለም	-496
ኩት	-497
▁መብ	-498
▁አይደለሁ	-499
▁ክፍል	-500
▁አታ	-501
ደርገ	-502
▁አየ	-503
▁ትምህርት	-504
ፈው	-505
ርስ	-506
▁እድ	-507
ደረግ	-508
ረ።	-509
▁ለማድረግ	-510
▁ምግብ	-511
▁ዕ	-512
▁ሁሉንም	-513
ነጋ	-514
▁ጀ	-515
▁ወን	-516
ምንት	-517
▁ስሜ	-518
▁"	-519
ቀድ	-520
▁ስህ	-521
▁ማየት	-522
▁ስንት	-523
ኞች	-524
▁ውሻ	-525
▁ማለት	-526
ጅም	-527
▁እነዚህ	-528
ቂት	-529
ወሰ	-530
ልክ	-531
▁ሁለ	-532
ርያምን	-533
▁ይችላሉ	-534
ጠይ	-535
ደረገ	-536
ቱዋ	-537
▁አስፈ	-538
▁ጸ	-539
ሃለሁ።	-540
ቴን	-541
▁አይደለሁም።	-542
ሩ።	-543
ጥነት	-544
▁ልት	-545
▁ይቅር	-546
▁ይወዳ	-547
▁አም	-548
ንጆ	-549
▁ደረ	-550
▁ይሰማ	-551
▁ይፈልጋሉ	-552
▁ሕ	-553
ቀው	-554
▁ያለው	-555
▁ትችላለህ	-556
ልፍ	-557
ብስ	-558
ቻለ	-559
▁በቀ	-560
▁በደ	-561
መለስ	-562
ቱዋል	-563
▁ሀሳብ	-564
▁ቆንጆ	-565
▁አስደ	-566
▁ድረስ	-567
▁ይችላል	-568
▁እንደዚህ	-569
▁አደርጋለሁ።	-570
ሁት።	-571
▁መው	-572
▁መግ	-573
▁ገና	-574
ተር	-575
▁ማወቅ	-576
▁ይችላል።	-577
ጣ።	-578
▁የለም።	-579
▁ተጨ	-580
▁አለብኝ	-581
▁እስካ	-582
▁የቶም	-583
▁በጥ	-584
▁ብሎ	-585
▁ሁለት	-586
ችው።	-587
▁ታውቃለህ	-588
ንም።	-589
ኛለሁ።	-590
▁ዳ	-591
▁እዚያ	-592
ርሳ	-593
▁እሱዋ	-594
▁እስከ	-595
▁ምክንያ	-596
ጫወት	-597
▁ዶ	-598
ሃል።	-599
▁ሁላ	-600
▁ጫ	-601
▁አዲስ	-602
▁እባክህ	-603
ገራ	-604
▁ከእኔ	-605
▁ጉዳይ	-606
▁ቃል	-607
▁እውነት	-608
ብሰ	-609
ችሉ	-610
ፈራ	-611
▁ማርያምን	-612
▁ያውቃ	-613
በር	-614
▁ፊ	-615
ሻለ	-616
ደብ	-617
በል	-618
ሶስት	-619
▁ቤተ	-620
▁ወንድ	-621
ናብ	-622
ያለሁ።	-623
▁እስካሁን	-624
ሞክ	-625
ረት	-626
ካከ	-627
▁ቀላል	-628
▁አለብን።	-629
ዋት	-630
▁የማይ	-631
▁ከማ	-632
ረጋ	-633
▁መጥፎ	-634
▁እርስዎ	-635
ቆም	-636
ሎች	-637
▁የእኔ	-638
ነሳ	-639
ፓር	-640
ገዛ	-641
▁የለው	-642
በብ	-643
▁ነህ።	-644
ጃፓ	-645
▁ሃ	-646
▁አደጋ	-647
▁ስህተት	-648
ችንም	-649
▁ምር	-650
ዘጋ	-651
▁ሻ	-652
▁በቂ	-653
▁ይቅርታ	-654
ረዶ	-655
በት።	-656
ይወት	-657
▁እውነ	-658
▁ትፈልጋ	-659
ንቀ	-660
ተው	-661
ግና	-662
ልህ	-663
ለኛ	-664
ላጆ	-665
ገኛ	-666
▁መር	-667
ለኝም።	-668
ላጊ	-669
▁በእር	-670
▁በእውነት	-671
▁አለብህ።	-672
▁አገኘ	-673
ዛት	-674
▁ሽ	-675
ገኝ	-676
▁ደብ	-677
ማማ	-678
▁አግ	-679
▁ሁልጊዜ	-680
ያን	-681
ዶች	-682
▁ሊሆን	-683
ምር	-684
ነግ	-685
ጠራ	-686
▁ስሜት	-687
ህና	-688
ደ።	-689
ቸውን	-690
▁በትክክል	-691
ውቅም	-692
▁አለህ	-693
▁የምን	-694
▁ነገሮች	-695
▁እንዳል	-696
ናልባት	-697
▁አስፈላጊ	-698
ንቅ	-699
▁በቅር	-700
ዳታ	-701
▁ምናልባት	-702
▁እኛ	-703
ነጋገር	-704
▁አያስ	-705
ጎት	-706
▁ሴት	-707
▁ነኝ	-708
ልከ	-709
ሳች	-710
ቢያ	-711
▁ሚ	-712
▁ከፍ	-713
▁አይመስለኝም።	-714
▁አጥ	-715
መር	-716
▁በል	-717
ቀጥለው	-718
▁ነን።	-719
የር	-720
የቅ	-721
▁አልቻል	-722
ጃፓን	-723
ደም	-724
▁እንደምት	-725
ሜሪ	-726
▁በሙ	-727
ናገረ	-728
▁በሰ	-729
▁አልነበረም።	-730
▁ተጠ	-731
▁ልጆች	-732
▁በደንብ	-733
ረጴ	-734
▁ኩ	-735
ረጴዛ	-736
▁ማስ	-737
▁ምንድን	-738
▁እንዲህ	-739
▁ታሪ	-740
▁አለው።	-741
ብህ	-742
ቅድ	-743
▁ቴ	-744
▁ጠን	-745
▁ማግኘት	-746
ሆና	-747
ቂቃ	-748
ሰበ	-749
▁ነህ	-750
▁ደህና	-751
ቀት	-752
▁እንኳ	-753
▁ሳምንት	-754
ሰግና	-755
▁ሰር	-756
▁ውሃ	-757
▁ሰጠ	-758
▁ትፈልጋለህ	-759
ፈልገው	-760
▁ሆነ	-761
▁ሳይ	-762
▁እራ	-763
▁ዋጋ	-764
ለፍ	-765
ሉም	-766
▁ውድ	-767
ሦስት	-768
ሯል።	-769
▁ደስ	-770
▁ገባ	-771
▁ጥቂት	-772
▁መቆ	-773
▁ተማሪ	-774
ዳቤ	-775
ችንን	-776
▁ያል	-777
ከብ	-778
ጠበ	-779
መለከ	-780
▁ባቡ	-781
▁መናገር	-782
▁ባለፈው	-783
ምት	-784
ተናል።	-785
ወድም።	-786
▁ደቂቃ	-787
▁ነበረብ	-788
▁ውጭ	-789
▁ዝናብ	-790
▁አስደሳች	-791
▁ወሰ	-792
ሆኑ	-793
ዱን	-794
ጫወ	-795
▁ሆኖ	-796
▁ልታ	-797
▁ፍላ	-798
ጥር	-799
▁በስ	-800
▁ለቶም	-801
▁አግኝ	-802
▁ድመ	-803
▁በሙሉ	-804
ጠላ	-805
▁እንኳን	-806
ሰጠ	-807
▁ችግ	-808
▁ቦስተን	-809
▁አጠ	-810
▁ጠዋት	-811
▁በፍጥነት	-812
ሞከር	-813
ቡን	-814
▁ገዛ	-815
ለመ	-816
▁አለው	-817
▁የቤት	-818
▁ጭ	-819
▁ስለዚህ	-820
ግጥ	-821
▁ኖ	-822
▁መም	-823
▁ብር	-824
▁ተናግ	-825
ወደ	-826
▁ስም	-827
▁ፊል	-828
▁ቡና	-829
▁ተጨማሪ	-830
▁በሚቀጥለው	-831
ለች	-832
ሰር	-833
ዎቹ	-834
▁መስሎ	-835
ኝነት	-836
▁መዝ	-837
▁የሚያስ	-838
የቀኑ	-839
▁በየቀኑ	-840
▁ደብዳቤ	-841
ጡ።	-842
▁ማው	-843
▁ጨዋ	-844
▁ለእኔ	-845
ጠር	-846
▁ጀመ	-847
ዎታል	-848
▁ከሰ	-849
."	-850
ገብ	-851
ልኝ።	-852
▁ር	-853
▁በአንድ	-854
▁ሰማ	-855
ባው	-856
ምሮ	-857
ቶቡ	-858
▁ሊያ	-859
ደርገው	-860
▁አባቴ	-861
▁በቅርቡ	-862
▁ይሆናል	-863
ሁት	-864
ጉት	-865
ታለሁ።	-866
▁ወይም	-867
▁ፍላጎት	-868
▁ፎ	-869
▁መቀ	-870
▁ሶስት	-871
ችልም	-872
▁አልቻልኩም።	-873
ዳን	-874
ጋሪ	-875
▁አበ	-876
▁ፖሊ	-877
ስክ	-878
ከባ	-879
ኛውን	-880
▁ከተማ	-881
መድ	-882
ቆይ	-883
ካከል	-884
▁ዝግ	-885
▁ሁላችንም	-886
ቀመጥ	-887
▁ይገባ	-888
ራው	-889
ኖች	-890
ጨነ	-891
▁ቀናት	-892
▁እሱን	-893
▁በግ	-894
▁ተከ	-895
▁እባካ	-896
▁አላውቅም	-897
▁ረጅም	-898
▁እንደተ	-899
▁የተሻለ	-900
ሞች	-901
ረፍት	-902
ተሃል	-903
▁አይችሉ	-904
ረኝ	-905
ዝቃ	-906
ድነው	-907
▁ብለው	-908
▁ያስባ	-909
ቀር	-910
▁ሙዚ	-911
▁ከቶም	-912
▁ምክንያት	-913
▁እንቅ	-914
▁ወላጆ	-915
ቀ።	-916
▁ትክክል	-917
▁እርዳታ	-918
ርሱ	-919
ሰጥ	-920
ሽት	-921
ቶችን	-922
▁በጭ	-923
▁አስቸ	-924
▁እባካችሁ	-925
▁አያውቅም።	-926
▁ፈል	-927
▁እንዳለብኝ	-928
ግባ	-929
▁ወድ	-930
▁መታ	-931
▁በዝ	-932
▁ወር	-933
▁መብላት	-934
ማት	-935
ቃት	-936
ፈለግ	-937
▁እንግሊ	-938
ሴን	-939
▁እመኛለሁ።	-940
ቦች	-941
▁እህ	-942
ሮችን	-943
▁ዕድ	-944
▁ጠየቀ	-945
ሰድ	-946
ዝና	-947
▁መሆ	-948
▁እንችላ	-949
▁ቅር	-950
ረጥ	-951
ሰት	-952
ሉን	-953
ተዋል።	-954
▁ስት	-955
▁ግድ	-956
ከፍ	-957
ወደው	-958
▁ሰራ	-959
▁በየ	-960
▁ብዙውን	-961
ርጣ	-962
ፉን	-963
▁ብዙም	-964
▁ታሪክ	-965
▁ዘግ	-966
▁የለውም።	-967
ንስ	-968
ፕላ	-969
▁አካ	-970
▁ቀደም	-971
▁እንዲያ	-972
▁እየሰራ	-973
ልኝ	-974
በቃ	-975
▁ስላ	-976
▁በእርግጥ	-977
▁መስሎኝ	-978
ይወ	-979
ሳሳይ	-980
▁ንግ	-981
▁መጠበቅ	-982
▁አልቻለ	-983
ታም	-984
ተና	-985
ንቃ	-986
▁ሱ	-987
▁ተሳ	-988
▁እንግዳ	-989
መም	-990
ላችሁ	-991
ቢያው	-992
▁የኔ	-993
ኛውም	-994
▁በራ	-995
▁አር	-996
ነበር	-997
ልኩ	-998
▁ሀብ	-999
▁መዋ	-1000
▁አሉ።	-1001
▁ዘግይ	-1002
▁አመታት	-1003
▁እንደሚያ	-1004
ነቱ	-1005
ጻፍ	-1006
▁አልወድም።	-1007
ጠጣ	-1008
▁ዝም	-1009
ሉት	-1010
ሌት	-1011
ቱም	-1012
ምንም።	-1013
▁ይሆናል።	-1014
ጠና	-1015
ፋት	-1016
▁ጽ	-1017
ውቀው	-1018
▁አስቀድ	-1019
ነፍ	-1020
ክት	-1021
ሁም።	-1022
▁ሰም	-1023
▁ዝግጁ	-1024
▁አለብን	-1025
ላሉ	-1026
▁ደክ	-1027
▁መከ	-1028
▁ቤቱ	-1029
▁ጉዞ	-1030
ሞት	-1031
ራሽ	-1032
በዝ	-1033
▁ሸ	-1034
ሰው	-1035
ሰ።	-1036
ቀረ	-1037
▁መግዛት	-1038
▁አለበት።	-1039
▁አለብዎት	-1040
ክፍ	-1041
ዝቃዛ	-1042
ፈጠ	-1043
ራል።	-1044
ልጽ	-1045
▁በሩን	-1046
▁ነገረ	-1047
▁አስቤ	-1048
▁ማውራት	-1049
ጹም	-1050
▁ትኩ	-1051
▁ወረ	-1052
▁እቅድ	-1053
▁እችላለሁ።	-1054
ወር	-1055
▁ጫማ	-1056
▁ቲ	-1057
▁በበ	-1058
▁ጸጉ	-1059
▁ቁዋን	-1060
ልድ	-1061
ያዝ	-1062
ሜሪካ	-1063
▁መሳ	-1064
▁እንድታ	-1065
ሁድ	-1066
ሸን	-1067
▁እንፈልጋ	-1068
00	-1069
▁ድም	-1070
▁እድል	-1071
ስታው	-1072
ግርህ	-1073
ቁዋል።	-1074
▁በዚያ	-1075
ዎት።	-1076
▁መሰ	-1077
▁ለዚህ	-1078
▁መምጣት	-1079
▁በመጨረሻ	-1080
▁እንደሆን	-1081
▁የእርስዎ	-1082
ጠኝ	-1083
▁በረዶ	-1084
▁እባክዎን	-1085
ብን	-1086
▁ፕ	-1087
ለውን	-1088
▁ተወ	-1089
ስራ	-1090
ኬት	-1091
ጦታ	-1092
▁አቅ	-1093
▁ተመሳሳይ	-1094
▁አስቸጋሪ	-1095
▁ነበረብኝ።	-1096
ኝም	-1097
ጠፋ	-1098
ጦር	-1099
ታችን	-1100
ወስዳ	-1101
▁ምሽት	-1102
ህር	-1103
ምፒ	-1104
ንገ	-1105
▁ማጥ	-1106
ቦስተን	-1107
▁የገና	-1108
ቼን	-1109
▁ኢ	-1110
▁ካል	-1111
▁መኖር	-1112
▁የተለ	-1113
▁ይሰራ	-1114
▁ፈልጌ	-1115
▁ከእርስዎ	-1116
▁አላምንም።	-1117
▁ልብ	-1118
▁በባ	-1119
▁ወዲ	-1120
▁ይኖ	-1121
▁ቦርሳ	-1122
▁እናቴ	-1123
ለ።	-1124
ስብ	-1125
▁አለበት	-1126
▁አመሰግና	-1127
ክክ	-1128
▁ሂ	-1129
ነገር	-1130
▁ሰአ	-1131
ፈልግም	-1132
▁ቁጥር	-1133
▁መጫወት	-1134
▁ቀዝቃዛ	-1135
ፓርቲ	-1136
▁ሰላ	-1137
▁ቁዋንቁዋ	-1138
▁ምስ	-1139
▁ስር	-1140
▁የራ	-1141
▁ይመ	-1142
▁ደግ	-1143
ረጴዛው	-1144
▁የእሱ	-1145
▁ወደዚያ	-1146
▁አይችሉም።	-1147
ዱ።	-1148
▁፣	-1149
▁ኩባ	-1150
▁ዶክ	-1151
ግራ	-1152
▁ዜ	-1153
ተኛት	-1154
ወሰነ	-1155
▁መደ	-1156
▁ይሻ	-1157
▁እሁድ	-1158
▁እሄዳ	-1159
▁ደረጃ	-1160
ረጃ	-1161
ጠይቅ	-1162
ጣሁ።	-1163
▁አንዱ	-1164
▁የአየር	-1165
▁አልቻለም።	-1166
ለድ	-1167
ገም	-1168
ሉም።	-1169
ሰብኩ	-1170
▁ልን	-1171
▁ተቀ	-1172
▁አድ	-1173
▁ፈቃ	-1174
▁ፎቶ	-1175
▁ደክሞ	-1176
▁ብቻዬን	-1177
ርባ	-1178
ሰል	-1179
ስትራ	-1180
ወስድ	-1181
▁ለው	-1182
▁ቀድ	-1183
▁ብት	-1184
▁አቁ	-1185
▁ንገረ	-1186
ታዊ	-1187
ጨስ	-1188
▁1	-1189
▁ወስ	-1190
ከው	-1191
ሥራት	-1192
▁ስጦታ	-1193
▁የመጀመሪያ	-1194
ሙን	-1195
ዳው	-1196
▁ለብ	-1197
▁መለ	-1198
▁በፈ	-1199
▁አገ	-1200
▁በጭራሽ	-1201
ባቢ	-1202
ይት	-1203
መስላ	-1204
ሮፕላ	-1205
ፈልጉ	-1206
▁ትር	-1207
▁የው	-1208
▁ይቻ	-1209
ስትራሊ	-1210
▁መካከል	-1211
ልም።	-1212
ችም።	-1213
▁ዘፈ	-1214
▁የወ	-1215
▁አውቶቡ	-1216
ሳተ	-1217
ሉዋል።	-1218
▁ተናግሯል።	-1219
▁ምሳ	-1220
▁የለብ	-1221
ካም	-1222
▁መንገ	-1223
▁መቆየት	-1224
▁ከሰአት	-1225
▁ለሁ	-1226
▁መማር	-1227
▁በአው	-1228
ርዝ	-1229
ቀስ	-1230
ካራ	-1231
ጠ።	-1232
▁ፊት	-1233
▁ሙዚቃ	-1234
▁ነበሩ።	-1235
▁አልገባ	-1236
▁ከአሁን	-1237
▁ለማርያም	-1238
▁እውነቱን	-1239
ብር	-1240
ዝኛ	-1241
▁በህ	-1242
ራለሁ።	-1243
▁ለገና	-1244
▁ከእሱ	-1245
▁ለአንድ	-1246
▁ማንበብ	-1247
ነስ	-1248
ዘኛ	-1249
ኖረው	-1250
▁ካር	-1251
▁ለማየት	-1252
መው	-1253
▁ኳ	-1254
▁በሁ	-1255
▁መልስ	-1256
▁ፒ	-1257
▁ልክ	-1258
▁መውጣት	-1259
▁ትመስላ	-1260
ሚያ	-1261
ሶች	-1262
ገበ	-1263
ላቸው	-1264
ተዋል	-1265
▁ቀይ	-1266
▁ጎበዝ	-1267
▁ነበርኩ።	-1268
▁እንፈልጋለን።	-1269
ራጭ	-1270
ቀቅ	-1271
▁ማሳ	-1272
▁ቀጠ	-1273
▁በም	-1274
ስትራሊያ	-1275
▁ጓደኞች	-1276
▁ተራ	-1277
▁እንቅልፍ	-1278
ለማ	-1279
ሩት	-1280
ችው	-1281
ፈር	-1282
ረዳት	-1283
ጠበቅ	-1284
▁የል	-1285
▁መምህ	-1286
▁ቀኑን	-1287
▁እጠላ	-1288
▁ልዩ	-1289
▁ይና	-1290
▁ስብሰ	-1291
▁መጀመሪያ	-1292
ሳኔ	-1293
ግሬ	-1294
ጎዳ	-1295
▁በር	-1296
▁ዳር	-1297
▁ፖሊስ	-1298
▁የምፈልገ	-1299
▁ይሰማኛል።	-1300
ረብ	-1301
ደት	-1302
ጠት	-1303
▁ያሳ	-1304
▁ይመስላል	-1305
ታማ	-1306
▁ተኝ	-1307
▁ይጠ	-1308
▁ለማን	-1309
▁ብስክ	-1310
▁መዋኘት	-1311
▁በቦስተን	-1312
ሄደ	-1313
▁መክ	-1314
▁ይሄዳ	-1315
▁ለማግኘት	-1316
▁የመጨረሻ	-1317
ሳካ	-1318
▁ሮ	-1319
▁ልጁ	-1320
▁በወ	-1321
ቤተ	-1322
ኒስ	-1323
ይታ	-1324
ጋው	-1325
ያየት	-1326
ፏል።	-1327
▁በሳ	-1328
▁ወጥ	-1329
▁የታ	-1330
▁ካንተ	-1331
ገጥ	-1332
ረጅም	-1333
ቱዋን	-1334
ችለው	-1335
▁ተቃ	-1336
▁መስኮ	-1337
▁እንዳት	-1338
▁ያስባሉ	-1339
ሊት	-1340
ሌም	-1341
ፈት	-1342
▁ቶ	-1343
▁ጨዋታ	-1344
▁መሆኑን	-1345
ስፒ	-1346
▁ሲያ	-1347
▁አፍ	-1348
መለከተ	-1349
▁ተሰማ	-1350
▁ወዲያው	-1351
ሀይ	-1352
ፎች	-1353
▁መጣ	-1354
▁ሁሌም	-1355
▁ውሳኔ	-1356
▁ፈተና	-1357
▁አይችልም።	-1358
ችኝ።	-1359
▁መፍ	-1360
▁አጋ	-1361
▁እመርጣ	-1362
▁እንደማይ	-1363
▁ይወዳል።	-1364
ሌቪ	-1365
ጠን	-1366
ሌቪዥ	-1367
▁በው	-1368
▁ተደ	-1369
▁ትክክ	-1370
▁አሳል	-1371
▁ደደብ	-1372
ላች	-1373
ረድ	-1374
▁ኪ	-1375
▁ጥቅ	-1376
▁ያስፈልገ	-1377
ፈለገ	-1378
▁ሰኞ	-1379
▁አለመ	-1380
ላር	-1381
በስ	-1382
በው	-1383
ቤቴ	-1384
ይል	-1385
ነዚህ	-1386
▁ኖሮ	-1387
▁ነገሮችን	-1388
ቂያ	-1389
ቃሚ	-1390
ዋቂ	-1391
ሸነፍ	-1392
ጠብቅ	-1393
▁ነፃ	-1394
▁ማስተ	-1395
▁ቀለም	-1396
▁አደረግ	-1397
መ።	-1398
ረፍ	-1399
ስማማ	-1400
▁መነ	-1401
▁ለመስ	-1402
▁ግልጽ	-1403
▁ፊልም	-1404
▁መመለስ	-1405
ክሲ	-1406
ባቸው	-1407
▁ረሳ	-1408
▁ከወ	-1409
▁መጠን	-1410
▁መተኛት	-1411
▁አስተማሪ	-1412
ደኛ	-1413
ጀመር	-1414
ፖርት	-1415
▁ግራ	-1416
▁ምርጫ	-1417
▁ወድጄ	-1418
▁ይችላሉ።	-1419
▁ውጤ	-1420
▁ድር	-1421
▁የለም	-1422
▁የመጣ	-1423
ብራ	-1424
ቱ።	-1425
ክስ	-1426
ፁም	-1427
▁ቁል	-1428
▁በጉ	-1429
▁ወቅ	-1430
▁ፈለ	-1431
▁ልብስ	-1432
▁ይመጣ	-1433
▁እነዚያ	-1434
▁እንችላለን	-1435
▁ደን	-1436
ደል	-1437
ችሁም	-1438
▁ለመር	-1439
▁አደረገ	-1440
ናው	-1441
ኩል	-1442
ዘግ	-1443
▁ሳጥ	-1444
▁ትላ	-1445
▁ለመግ	-1446
▁በመስ	-1447
▁ጠቃሚ	-1448
▁አካባቢ	-1449
▁የተለየ	-1450
▁ያለውን	-1451
▁አንችልም።	-1452
አቱ	-1453
የው	-1454
▁።	-1455
ዷል።	-1456
▁አዳ	-1457
መለከት	-1458
▁ሄደ።	-1459
▁በእኔ	-1460
▁ወጣት	-1461
▁ጠንክ	-1462
▁እንደዚያ	-1463
▁ከማርያም	-1464
ሸት	-1465
ያዊ	-1466
▁በሌ	-1467
▁ቢራ	-1468
▁ተን	-1469
▁ተኛ	-1470
▁በእውነ	-1471
▁እንዳይ	-1472
▁ፓ	-1473
▁መስራት	-1474
▁ጓደኛዬ	-1475
▁እነዚህን	-1476
ተህ	-1477
ዲህ	-1478
▁ኃ	-1479
▁ሄድ	-1480
▁ህል	-1481
▁መድ	-1482
ስፒታል	-1483
▁እኔን	-1484
▁ወይን	-1485
ልሃለሁ።	-1486
▁ለምንድነው	-1487
▁ኬ	-1488
ኮትን	-1489
መት	-1490
ጣን	-1491
ስም።	-1492
▁ተጫ	-1493
▁ዶላር	-1494
▁መውሰድ	-1495
▁እባኮትን	-1496
ያኖ	-1497
ግ።	-1498
ፈቀ	-1499
▁ሴ	-1500
▁ጃ	-1501
ድርጉ	-1502
▁ሻይ	-1503
▁ፕሮ	-1504
▁ወቅት	-1505
▁ሁለቱም	-1506
▁ከአንድ	-1507
መረ	-1508
ሬት	-1509
▁ቃላት	-1510
▁እንስ	-1511
▁የለውም	-1512
▁ጠንካራ	-1513
▁ለመርዳት	-1514
ለል	-1515
ስር	-1516
▁በረ	-1517
▁የባ	-1518
▁ድን	-1519
▁ማቆም	-1520
▁ስልክ	-1521
▁ተመል	-1522
▁መሥራት	-1523
▁መስማት	-1524
▁አየሁ።	-1525
▁ይወዳሉ	-1526
ሂድ	-1527
ራዊ	-1528
ናደ	-1529
ጠቀም	-1530
▁ማመን	-1531
▁ራሴን	-1532
▁ሀብታም	-1533
▁ጣቢያው	-1534
▁የምፈልገው	-1535
ምና	-1536
ዘጋጀ	-1537
ጥቂት	-1538
ጨረስ	-1539
▁በላ	-1540
▁አማ	-1541
▁ይቆ	-1542
ናገረው	-1543
▁ቴሌቪዥ	-1544
▁ከእንግ	-1545
▁ጀመረ።	-1546
▁በእውነቱ	-1547
▁ያውቃል።	-1548
ዳሜ	-1549
ጉም	-1550
ሰራው	-1551
ድስት	-1552
▁ሀኪ	-1553
▁ኳስ	-1554
▁ከዚያ	-1555
▁አሉኝ።	-1556
▁አደገኛ	-1557
ሻሻ	-1558
ገሩ	-1559
▁በሩ	-1560
▁ቢሮ	-1561
▁ከሁ	-1562
▁ማነው	-1563
▁ባቡሩ	-1564
▁ትወዳ	-1565
▁እንደዛ	-1566
▁ያደርጋ	-1567
▁ይሰማኛል	-1568
▁ይፈልጋል።	-1569
▁ወድጄዋለሁ።	-1570
ከረ	-1571
ጋት	-1572
ከተማ	-1573
▁ታስ	-1574
▁ጠብ	-1575
ታለች።	-1576
▁ቀድሞ	-1577
▁የምታ	-1578
▁የዚህ	-1579
▁ነዎት።	-1580
▁እረፍት	-1581
▁አትችልም።	-1582
ላቅ	-1583
ለመደ	-1584
ጠብቃ	-1585
▁ክብ	-1586
▁የጥ	-1587
ቁዋቁዋ	-1588
▁ጀምሮ	-1589
▁ከፍተኛ	-1590
▁ፍጥነት	-1591
ጨነቅ	-1592
▁ያሉ	-1593
▁ጦር	-1594
▁ሦስት	-1595
▁እራት	-1596
▁ኮምፒ	-1597
▁ፓርቲ	-1598
▁በመኪና	-1599
▁ታደርጋ	-1600
▁ያስፈልግ	-1601
ህም	-1602
ቁር	-1603
ታች	-1604
ወጥ	-1605
ይን	-1606
ቀመጫ	-1607
ኗል።	-1608
▁ቅዳሜ	-1609
▁አሜሪካ	-1610
ሥራ	-1611
ሬን	-1612
ዲዮ	-1613
ጭር	-1614
በትን	-1615
▁ወጣ	-1616
▁ጨር	-1617
▁ፈጽ	-1618
▁መቼም	-1619
▁ነዎት	-1620
▁እርስ	-1621
▁በአለም	-1622
▁በአንተ	-1623
▁አለን።	-1624
▁ወንድሜ	-1625
▁ይቻላል	-1626
ሁኑ	-1627
ኸው	-1628
▁ፋ	-1629
▁የድ	-1630
ሳለሁ።	-1631
▁የተሳ	-1632
▁መጨረሻ	-1633
ራል	-1634
ኞቹ	-1635
▁ልነ	-1636
▁ተለ	-1637
▁ወፍ	-1638
▁ምክር	-1639
▁በዝቶ	-1640
▁ከእኛ	-1641
▁ወጣ።	-1642
▁ስራውን	-1643
ዱት	-1644
ጣሚ	-1645
ፍያ	-1646
▁2	-1647
ዙሪያ	-1648
ጠየቅ	-1649
▁መመ	-1650
▁ተገ	-1651
▁ማስታ	-1652
▁ብለህ	-1653
▁ወደዚህ	-1654
▁እንግሊዘኛ	-1655
ርፍ	-1656
ሽን	-1657
ቂኝ	-1658
ኩህ	-1659
ዘን	-1660
ውም።	-1661
▁በጠ	-1662
▁እጅ	-1663
▁ባቡር	-1664
▁ነበሩ	-1665
▁ከእንግዲህ	-1666
መል	-1667
ቡ።	-1668
ከን	-1669
ጓዝ	-1670
ደርስ	-1671
▁አሣ	-1672
▁ከት	-1673
አለሁ።	-1674
▁በክፍ	-1675
▁እፈራ	-1676
▁ለረጅም	-1677
▁ከአንተ	-1678
▁ተማሪዎች	-1679
▁አይችልም	-1680
ቁ።	-1681
ኝን	-1682
ወል	-1683
▁ሹ	-1684
እምሮ	-1685
ኩኝ።	-1686
ደርጉ	-1687
ፈጠረ	-1688
▁ከም	-1689
▁ኬክ	-1690
▁ይለ	-1691
▁ጃፓን	-1692
▁ፈጽሞ	-1693
▁ፍቅር	-1694
▁በሰአቱ	-1695
▁ፈቃደኛ	-1696
▁እየሞከር	-1697
ከፋ	-1698
ጀም	-1699
ገት	-1700
ንግሊ	-1701
▁ባዶ	-1702
▁ተቀም	-1703
▁አብዛ	-1704
▁ከሆነ	-1705
▁ዕድሜ	-1706
▁ማንንም	-1707
▁አብረን	-1708
▁አጠገብ	-1709
▁ይናገራ	-1710
▁ዶክተር	-1711
▁እንደሚሆን	-1712
▁አልገባኝም።	-1713
▁አመሰግናለሁ።	-1714
ሰረ	-1715
▁ያዘ	-1716
▁ቴኒስ	-1717
▁እገም	-1718
▁ኮፍያ	-1719
▁ዳርቻ	-1720
▁ለመሆን	-1721
▁መጠቀም	-1722
▁ትርጉም	-1723
▁ወንዶች	-1724
▁አይመስልም።	-1725
30	-1726
ራፊ	-1727
ወራ	-1728
ደውል	-1729
ጣል።	-1730
▁ማጨስ	-1731
▁ጉዳዩ	-1732
▁ለማለት	-1733
▁ለእርስዎ	-1734
▁የተወሰነ	-1735
▁እመርጣለሁ።	-1736
ረፈ	-1737
ሱዋ	-1738
ትክል	-1739
▁ቆይ	-1740
▁አና	-1741
▁የቀ	-1742
▁ደር	-1743
▁መብራ	-1744
▁እኔም	-1745
▁ዘፈን	-1746
▁ጊዜው	-1747
▁ለመሄድ	-1748
ስህ	-1749
ዘገ	-1750
▁ሆነ።	-1751
▁መጣ።	-1752
▁እሆና	-1753
▁ይልቅ	-1754
▁መስጠት	-1755
ሳል	-1756
ቤን	-1757
ተ።	-1758
ነሱ	-1759
ገኙ	-1760
ጠቀ	-1761
ዘንብ	-1762
▁ሞቃት	-1763
▁ስጠኝ	-1764
▁በጥሩ	-1765
▁ገባ።	-1766
▁ያውቃሉ	-1767
▁እጠላለሁ።	-1768
ረም	-1769
ነዳ	-1770
ንፋ	-1771
ጻሕ	-1772
ሱዋል።	-1773
▁መልእ	-1774
▁አባት	-1775
▁አስቂኝ	-1776
▁አንተን	-1777
▁አድርጌ	-1778
▁እንደማት	-1779
ንክ	-1780
ገናኘ	-1781
▁በቁ	-1782
▁ዛፍ	-1783
መሰግና	-1784
▁ታዋቂ	-1785
▁ሕይወት	-1786
▁ሆስፒታል	-1787
▁የምፈልገው።	-1788
ላከ	-1789
በረ	-1790
ቡዋ	-1791
ትር	-1792
ቸኮ	-1793
ንጥ	-1794
ውቀ	-1795
ጥብ	-1796
ረምት	-1797
ረዳህ	-1798
ረዳኝ	-1799
▁መተ	-1800
▁ትክክለኛ	-1801
▁አስተያየት	-1802
ገን	-1803
ጠል	-1804
▁ለራ	-1805
▁ቀሚ	-1806
▁እግ	-1807
▁መረጃ	-1808
▁እንቁ	-1809
▁ውሻው	-1810
▁ያንተ	-1811
▁ጸጉር	-1812
▁በፈረንሳይኛ	-1813
ባል	-1814
ከሰ	-1815
ፈለጉ	-1816
▁ሜሪ	-1817
▁እም	-1818
▁ገብ	-1819
▁ብልህ	-1820
▁አገር	-1821
▁ክፍሉ	-1822
▁ግንኙ	-1823
▁መንዳት	-1824
▁ያድርጉ	-1825
▁ይወስዳ	-1826
▁አስባለሁ	-1827
▁አውሮፕላ	-1828
▁እገምታለሁ።	-1829
ሰሩ	-1830
ንሰር	-1831
ዳንዱ	-1832
▁መራ	-1833
▁ዜና	-1834
ሙዋል።	-1835
▁ሁለታ	-1836
▁ለውጥ	-1837
▁መርዳት	-1838
▁ብቻውን	-1839
▁ምንድነው	-1840
ለኝ	-1841
ሞላ	-1842
በኛ	-1843
የኝ	-1844
ገግ	-1845
▁ሬ	-1846
▁ሄደ	-1847
▁ቀጥ	-1848
▁አሰብ	-1849
▁አንብ	-1850
▁ከየት	-1851
▁መልካም	-1852
▁አምስት	-1853
▁ጠረጴዛ	-1854
▁ነገረኝ።	-1855
▁ትችላለህ።	-1856
ፊያ	-1857
▁ኤ	-1858
▁ጤ	-1859
▁ይቀ	-1860
ረጋገጥ	-1861
▁መሞከር	-1862
▁አድርጓ	-1863
▁አይደሉም።	-1864
▁እንደምችል	-1865
ውቁ	-1866
ንቃቄ	-1867
▁ነጭ	-1868
▁የፈ	-1869
▁ፖም	-1870
ጻሕፍት	-1871
▁በቶም	-1872
▁አለኝ	-1873
▁አዝና	-1874
▁የማን	-1875
▁አሉት።	-1876
▁መነጋገር	-1877
ረስ	-1878
በዛ	-1879
ንዳ	-1880
▁ሜ	-1881
▁ሩ	-1882
▁በቃ	-1883
ኛውንም	-1884
▁ምልክ	-1885
▁ያልተ	-1886
▁መጠጣት	-1887
▁መጽሀፉን	-1888
▁አላስታው	-1889
ቶቹ	-1890
ንቲ	-1891
ጭቆ	-1892
▁ኦ	-1893
ጧል።	-1894
▁ሆቴ	-1895
▁ሥዕ	-1896
▁አላየ	-1897
▁ክፍት	-1898
▁መዝገበ	-1899
▁ቤተሰብ	-1900
▁ለመናገር	-1901
▁እንዳለበት	-1902
▁እንዳልሆነ	-1903
ነብ	-1904
▁ልጄ	-1905
▁አዝ	-1906
▁ዋና	-1907
▁ይታ	-1908
▁አየር	-1909
▁እያን	-1910
▁በፍጹም	-1911
▁አይሆን	-1912
▁አድርገ	-1913
▁እንሂድ	-1914
▁ኮምፒው	-1915
ሮጥ	-1916
ለህም	-1917
ልከት	-1918
ዎቹን	-1919
▁ለል	-1920
▁ሞክ	-1921
▁የሰ	-1922
ችለውን	-1923
▁ጥቁር	-1924
▁መጠየቅ	-1925
▁በቀላሉ	-1926
▁በፍፁም	-1927
▁አስታው	-1928
▁ይፈልጋል	-1929
ምጃ	-1930
ስቱ	-1931
ፈጥ	-1932
ሞክር	-1933
ግስት	-1934
▁ከል	-1935
▁ጠፍ	-1936
▁አለባ	-1937
▁እግር	-1938
▁በእግር	-1939
▁ማንኛውንም	-1940
▁አያስፈልገ	-1941
ረሳ	-1942
ናቂ	-1943
ንጣ	-1944
▁ባህ	-1945
▁ውሾ	-1946
▁ህይወ	-1947
▁መተው	-1948
▁ከቤት	-1949
▁ዙሪያ	-1950
ቁዋቁዋም	-1951
▁ብርጭቆ	-1952
▁አላት።	-1953
▁እሄዳለሁ።	-1954
ነሰ	-1955
ካል	-1956
ጡት	-1957
ጠቢያ	-1958
▁ሄጄ	-1959
▁ግብ	-1960
▁ህመም	-1961
▁መደብ	-1962
▁ማሰብ	-1963
▁እህቴ	-1964
▁ፍጹም	-1965
▁ያለብን	-1966
▁ይመስል	-1967
▁እውነተኛ	-1968
▁ወዲያውኑ	-1969
ላፊ	-1970
ሬው	-1971
ሱ።	-1972
ሽ።	-1973
ናግ	-1974
ደግ	-1975
▁ዲ	-1976
ለው።	-1977
ሞችን	-1978
ንጥላ	-1979
ጀምር	-1980
▁ሰጥ	-1981
▁ይም	-1982
▁ይው	-1983
ራለች።	-1984
▁ምርጥ	-1985
▁አጭር	-1986
▁የሴት	-1987
▁ለማንም	-1988
▁አስተዋ	-1989
▁እንደሌ	-1990
▁ለመግዛት	-1991
ርክ	-1992
ተወ	-1993
ኝታ	-1994
ችኹዋ	-1995
ነገረ	-1996
ጠበቀ	-1997
▁ብቸ	-1998
ብህም።	-1999
▁ልጆቹ	-2000
▁አለም	-2001
▁አለቃ	-2002
▁ልጠይቅ	-2003
▁ንገረኝ	-2004
▁ያውቃል	-2005
▁ያደረገ	-2006
▁ልነግርህ	-2007
▁ሰምቻለሁ።	-2008
▁አላስታውስም።	-2009
ሬታ	-2010
ፋጭ	-2011
▁እብ	-2012
ላለሁ።	-2013
▁የተወ	-2014
▁ያደረ	-2015
ፈልገውን	-2016
▁ሰአታት	-2017
▁ታደርጋለህ	-2018
ለቀ	-2019
ላው	-2020
ሩኝ	-2021
ሸራ	-2022
ያይ	-2023
ለኝ።	-2024
ብላት	-2025
ነበብ	-2026
▁ለተ	-2027
▁ቀር	-2028
▁ለማስ	-2029
▁ቁልፍ	-2030
▁በድን	-2031
▁ወይስ	-2032
▁አላገኘ	-2033
መጥ	-2034
ማሽ	-2035
ሜራ	-2036
ራ።	-2037
ሰቃ	-2038
ኒት	-2039
ዲት	-2040
▁ሶ	-2041
▁ጮ	-2042
ኛለህ	-2043
▁ባል	-2044
▁የሌ	-2045
▁የስ	-2046
▁አልጋ	-2047
▁አድራ	-2048
▁ወተት	-2049
▁ፈለገ	-2050
▁ፈገግ	-2051
▁መኪናው	-2052
▁በጃፓን	-2053
▁አለብህ	-2054
▁አይሰማ	-2055
▁ብስክሌት	-2056
▁የለንም።	-2057
ላሳ	-2058
ንፃ	-2059
ከራ	-2060
ደበ	-2061
ገነ	-2062
ራፊክ	-2063
▁ልም	-2064
▁ስል	-2065
▁በሽ	-2066
▁ተሸ	-2067
▁ነፋ	-2068
▁ገበ	-2069
▁ቅሬታ	-2070
▁ቡድን	-2071
▁ካሜራ	-2072
▁የድሮ	-2073
▁ማስታወ	-2074
▁ስብሰባ	-2075
▁በተቻለ	-2076
▁እንደምን	-2077
ሰቡ	-2078
ላሉ።	-2079
በደር	-2080
ውጣት	-2081
ዶችን	-2082
ገንዘ	-2083
▁ሞከር	-2084
▁ተወዳ	-2085
▁አሰል	-2086
▁የፈለ	-2087
▁ጓደኞ	-2088
▁ጠበቃ	-2089
▁ስራዬን	-2090
▁ትኩረት	-2091
▁ወላጆች	-2092
▁አሰብኩ።	-2093
▁እንደሚችል	-2094
▁እፈራለሁ።	-2095
ሪው	-2096
ባይ	-2097
ንደ	-2098
ለኛው	-2099
ቆየት	-2100
ዘጋጅ	-2101
ጠይቃ	-2102
ፈለግክ	-2103
▁ቁርስ	-2104
▁አዲሱ	-2105
▁እንጂ	-2106
▁እየቀ	-2107
▁መኪናውን	-2108
▁ያስፈልግዎታል	-2109
ላቀ	-2110
ርጥ	-2111
ጠባ	-2112
▁ከሌ	-2113
ዎታል።	-2114
▁ህልም	-2115
▁ሕንፃ	-2116
▁ስህተ	-2117
▁ይሞክ	-2118
▁ጀርባ	-2119
▁መግባት	-2120
▁እናመሰግና	-2121
ታር	-2122
ትህ	-2123
ጣሉ	-2124
ፉ።	-2125
ኩትን	-2126
ፓርኩ	-2127
▁እቅ	-2128
▁የግ	-2129
ናለሁ።	-2130
▁መድሃ	-2131
▁ስለሱ	-2132
▁ዝርዝ	-2133
▁ይበል	-2134
▁ሰዎችን	-2135
▁አልነበ	-2136
▁አደንቃ	-2137
▁እንግሊዝኛ	-2138
ኩም	-2139
ብሰል	-2140
▁አቀ	-2141
▁ጋዜ	-2142
ከባከብ	-2143
▁ስልኩ	-2144
▁በማን	-2145
▁ቤቱን	-2146
▁ተናደ	-2147
▁ትሄዳ	-2148
▁እገዛ	-2149
▁መክፈል	-2150
▁ገዛሁ።	-2151
▁እያሰብኩ	-2152
▁ግንኙነት	-2153
▁እንደሆንክ	-2154
▁እንችላለን።	-2155
መና	-2156
ሯል	-2157
ስቃ	-2158
ጀል	-2159
ጸዳ	-2160
▁ጊ	-2161
▁ጓ	-2162
ማል።	-2163
ስህን	-2164
ኖረኝ	-2165
▁ሸሚ	-2166
▁ትዕ	-2167
▁ትሆና	-2168
▁አይታ	-2169
▁ድምጽ	-2170
▁ፒያኖ	-2171
ሬያለሁ።	-2172
ናገረውን	-2173
▁ለሁሉም	-2174
▁ቅዳሜና	-2175
▁እድለኛ	-2176
▁አስቀድሜ	-2177
▁እንደሆንኩ	-2178
ሥር	-2179
ውም	-2180
ገለ	-2181
ረዋል	-2182
ቀበል	-2183
ደሰት	-2184
▁ታም	-2185
▁ችሎ	-2186
▁የፍ	-2187
▁በርሳ	-2188
▁በቀር	-2189
▁የቅር	-2190
▁ይሻል	-2191
▁ጣፋጭ	-2192
▁በበረዶ	-2193
▁ትላንት	-2194
▁የትኛው	-2195
▁የእግር	-2196
▁ስለነበር	-2197
▁የሆነውን	-2198
ለቅ	-2199
ፋ።	-2200
ሳቡን	-2201
ችሁ።	-2202
▁ልጃ	-2203
▁ምግ	-2204
▁ብታ	-2205
▁ጠይ	-2206
ብኛል።	-2207
ተሃል።	-2208
▁ታላቅ	-2209
▁እችል	-2210
▁ለሦስት	-2211
▁ወላጆቼ	-2212
▁በህይወት	-2213
▁ተመለከተ	-2214
▁ገንዘቡን	-2215
▁መቁዋቁዋም	-2216
ራሉ	-2217
▁ሪ	-2218
ሪዎች	-2219
▁መጠጥ	-2220
▁ሚስጥ	-2221
▁ያገኘ	-2222
▁ነበርክ	-2223
▁አለህ።	-2224
▁ክረምት	-2225
▁የትኛውን	-2226
ሙዋ	-2227
ረዱ	-2228
ጆች	-2229
ቦችን	-2230
ቻለሁ	-2231
ንፋን	-2232
ከሰት	-2233
ዎትም	-2234
ያንስ	-2235
▁ታማ	-2236
▁ጠየ	-2237
▁ጥፋ	-2238
ቡዋል።	-2239
▁ሃሳብ	-2240
▁ቢሆን	-2241
▁ተነሳ	-2242
ግጠኝነት	-2243
▁ቢያንስ	-2244
▁ችግሩን	-2245
▁ማረጋገጥ	-2246
▁አልፈልግም	-2247
ርድ	-2248
በሳ	-2249
ነቀ	-2250
ሎችን	-2251
ርስቲ	-2252
በዋል	-2253
ችሁን	-2254
▁ሞኝ	-2255
▁ቲቪ	-2256
▁ትል	-2257
▁ውጪ	-2258
▁ድግ	-2259
ሻለሁ።	-2260
▁ሀኪም	-2261
▁ራሱን	-2262
▁ተዘግ	-2263
▁አሉዋ	-2264
▁የእኛ	-2265
▁ድመት	-2266
▁ወንበር	-2267
▁ሁላችሁም	-2268
▁አድርጓል።	-2269
▁ጥያቄዎችን	-2270
▁አደንቃለሁ።	-2271
ራም	-2272
ቃወ	-2273
ታቸው	-2274
ገባኝ	-2275
▁ለም	-2276
▁ቆር	-2277
▁የሁ	-2278
▁ይሸ	-2279
▁ሌሎች	-2280
▁እሰራ	-2281
▁እስኪ	-2282
▁ጥቅም	-2283
▁መሳሪያ	-2284
▁ተወዳጅ	-2285
▁አልበላ	-2286
▁አድራሻ	-2287
▁እንድን	-2288
▁እሄዳለሁ	-2289
▁እናደርጋ	-2290
▁እየሞከርኩ	-2291
▁ትመስላለህ።	-2292
▁አውስትራሊያ	-2293
▁በእርግጠኝነት	-2294
ባብ	-2295
ኪዮ	-2296
ዮን	-2297
ጎበ	-2298
ፁህ	-2299
▁ቁጥ	-2300
▁አጣ	-2301
▁ጣዕ	-2302
▁ጥን	-2303
▁ተግባ	-2304
▁ችግሩ	-2305
▁አሉት	-2306
▁ህይወት	-2307
▁አጣሁ።	-2308
▁ጦርነት	-2309
▁የማውቀው	-2310
▁ይቅርታ፣	-2311
▁እናመሰግናለን።	-2312
ሃን	-2313
መኝ	-2314
ኔን	-2315
ካክ	-2316
ረጋግ	-2317
ኹዋል	-2318
ዋለሁ	-2319
▁ከቀ	-2320
ድርግ።	-2321
▁ሻንጣ	-2322
▁በማለ	-2323
▁ተስማ	-2324
▁እየጨ	-2325
▁የምር	-2326
▁ያለብ	-2327
▁አይገባ	-2328
▁ከመጠን	-2329
▁የጃፓን	-2330
▁መልእክት	-2331
▁አውቶቡስ	-2332
▁አገኘሁት።	-2333
▁አልነበረኝም።	-2334
ተሩ	-2335
ጨት	-2336
ህም።	-2337
ንቀሳ	-2338
ደረሰ	-2339
ጋችሁ	-2340
▁ሌሊ	-2341
▁ተዋ	-2342
▁ግጥ	-2343
ገንዘብ	-2344
▁ቅርብ	-2345
▁እይታ	-2346
▁ሰማያዊ	-2347
▁እየሆነ	-2348
▁የነበረ	-2349
▁ከእነዚህ	-2350
ከውን	-2351
ፈቅድ	-2352
▁የሙ	-2353
▁የቆ	-2354
▁በእሱ	-2355
▁አይን	-2356
▁ስድስት	-2357
▁ለመስራት	-2358
▁ያስፈልጋ	-2359
ሪክ	-2360
ሮው	-2361
ዶቹ	-2362
ጠው	-2363
ፈስ	-2364
▁ጡ	-2365
ለተኛ	-2366
ረዳው	-2367
ስዎን	-2368
▁ምላ	-2369
▁ከው	-2370
▁የሞ	-2371
ኩትም።	-2372
▁ለፊት	-2373
▁ሰላሳ	-2374
▁ተረድ	-2375
▁አመጣ	-2376
▁ኩባያ	-2377
▁ይጫወ	-2378
▁ጣዕም	-2379
▁ጭንቅ	-2380
▁ሳይሆን	-2381
▁ስለዚያ	-2382
▁ቀድሞው	-2383
▁ችግሮች	-2384
▁ልጠይቅህ	-2385
▁ነበረች።	-2386
▁አምናለሁ።	-2387
▁ይሻልሃል።	-2388
ሙ።	-2389
ሮቹ	-2390
ሳቱ	-2391
ቡር	-2392
የሁ	-2393
ገል	-2394
ጥሞ	-2395
ስቃሴ	-2396
▁ለስ	-2397
▁ስታ	-2398
▁ቤቴ	-2399
▁ተው	-2400
▁ቶሎ	-2401
▁ናት	-2402
▁የደ	-2403
▁ቀሚስ	-2404
▁በስተ	-2405
▁ንፁህ	-2406
▁ጊታር	-2407
▁ተናገረ	-2408
▁ተኛሁ።	-2409
▁እባክዎ	-2410
▁መጻሕፍት	-2411
▁ተሰማኝ።	-2412
▁አገኘሁ።	-2413
▁ጠየቀኝ።	-2414
መመ	-2415
ነገ	-2416
ንጫ	-2417
ካሽ	-2418
ጋይ	-2419
▁ሾ	-2420
ሪያው	-2421
▁በብ	-2422
▁በዛ	-2423
▁ተጋ	-2424
▁የጸ	-2425
▁ይሄ	-2426
▁ይበ	-2427
▁ደወ	-2428
▁ሆቴል	-2429
▁መከረ	-2430
▁ሰላም	-2431
▁ሴቶች	-2432
▁ታስባ	-2433
▁አሳየ	-2434
ርሱዋል።	-2435
▁መቀመጫ	-2436
▁ነበር፣	-2437
▁አልሄድ	-2438
▁አብረው	-2439
▁ወፍራም	-2440
▁ያስቀም	-2441
▁ያደረግ	-2442
▁ለመጨረሻ	-2443
▁መስኮቱን	-2444
▁በሳምንት	-2445
▁ነበረው።	-2446
▁አይቻለሁ።	-2447
ለብ	-2448
ንሰ	-2449
ክብ	-2450
ወቀ	-2451
ድና	-2452
ጋራ	-2453
ጣል	-2454
ጽፍ	-2455
ሄደው	-2456
መስል	-2457
ምንም	-2458
ቻችን	-2459
ግባት	-2460
▁መላ	-2461
▁መገ	-2462
▁ቆሻሻ	-2463
▁አስብ	-2464
▁ጉዳት	-2465
▁ጠየቅ	-2466
▁ልትነግ	-2467
▁አሰልቺ	-2468
▁አስፈሪ	-2469
▁አትክል	-2470
▁እንገና	-2471
▁አስደናቂ	-2472
▁እወዳለሁ	-2473
▁የተሳሳተ	-2474
▁በጠረጴዛው	-2475
▁አይፈልግም።	-2476
ረታ	-2477
ኖሩ	-2478
ዝብ	-2479
ጥፎ	-2480
ፖሊ	-2481
ስበው	-2482
ደረጉ	-2483
▁ነግ	-2484
▁እጥ	-2485
▁ላለመ	-2486
▁በቀን	-2487
▁ብሆን	-2488
▁ተቀመ	-2489
▁ታክሲ	-2490
▁አልፎ	-2491
▁ከጓደ	-2492
▁ኹዋላ	-2493
▁ዕድል	-2494
▁ይመልከ	-2495
▁ጉንፋን	-2496
▁ብሎኛል።	-2497
▁ይሰራል።	-2498
ታደ	-2499
ናሽ	-2500
ከለ	-2501
ያዩ	-2502
በላሽ	-2503
ያለሁ	-2504
ጨነቃ	-2505
▁ረድ	-2506
▁አሮ	-2507
▁እቆ	-2508
▁ጤና	-2509
መጣም።	-2510
▁መኝታ	-2511
▁መጻፍ	-2512
▁በገና	-2513
▁ቤተሰ	-2514
▁ችሎታ	-2515
▁አይኖ	-2516
▁ወሰደ	-2517
▁ባለቤቴ	-2518
▁እርምጃ	-2519
▁እናውቃ	-2520
▁ኩባንያ	-2521
▁አልችልም	-2522
▁አውቃለሁ	-2523
▁ይለኛል።	-2524
▁ይናገራል።	-2525
▁ያስፈልገዋል	-2526
ሳስ	-2527
ነቅ	-2528
▁ኑ	-2529
▁ጆ	-2530
ሶችን	-2531
ወሰን	-2532
ጋጣሚ	-2533
▁ራስ	-2534
▁ተቆ	-2535
▁ችላ	-2536
▁ዝቅ	-2537
▁ያዝ	-2538
▁መጽሃ	-2539
▁ቀልድ	-2540
▁አውቅ	-2541
▁እብድ	-2542
▁ያሉት	-2543
▁ሌሊቱን	-2544
▁ልረዳህ	-2545
▁ሰማሁ።	-2546
▁እሱዋን	-2547
▁በድንገት	-2548
▁ቴሌቪዥን	-2549
▁እንዳለህ	-2550
▁ደክሞኛል	-2551
▁ጠረጴዛው	-2552
ሸጥ	-2553
ማመን	-2554
ቱንም	-2555
ቶቡስ	-2556
ንቀቅ	-2557
ወገድ	-2558
ጨረቃ	-2559
▁ሀይ	-2560
▁ተም	-2561
ሰራም።	-2562
ዎትም።	-2563
▁መነጽ	-2564
▁ሳጥን	-2565
▁በአል	-2566
▁ብለን	-2567
▁አሸን	-2568
▁ክፍሌ	-2569
▁ያለብኝ	-2570
▁መንገዱን	-2571
▁ማስታወሻ	-2572
▁እርስዎን	-2573
▁ይሄዳል።	-2574
▁ጥያቄዎች	-2575
▁እንቅስቃሴ	-2576
▁ከትምህርት	-2577
▁አግኝቻለሁ።	-2578
▁አያስፈልገኝም።	-2579
ሎት	-2580
ቡት	-2581
ነ።	-2582
ኳር	-2583
ዘው	-2584
ጹህ	-2585
ሉዋል	-2586
ቶቹን	-2587
▁ቀረ	-2588
▁በክ	-2589
▁አሻ	-2590
ልከት።	-2591
▁ርካሽ	-2592
▁በልጅ	-2593
▁በአደ	-2594
▁እኔና	-2595
▁የእጅ	-2596
▁ድንቅ	-2597
▁በሁሉም	-2598
▁ነበረኝ።	-2599
▁ይመጣል።	-2600
ለቲ	-2601
ቦል	-2602
ኩለ	-2603
ያቂ	-2604
ገደ	-2605
ጎቴ	-2606
ፖር	-2607
ራቸው	-2608
ራችሁ	-2609
ሳለሁ	-2610
ናደድ	-2611
ንገድ	-2612
ውሰድ	-2613
▁ባይ	-2614
▁እቃ	-2615
▁ይባ	-2616
▁መሬት	-2617
▁አውቀ	-2618
▁እቤት	-2619
▁እነሱ	-2620
▁እየሞ	-2621
▁የሚወ	-2622
▁ይውሰ	-2623
▁በክፍሉ	-2624
▁አስቀም	-2625
▁አቁም።	-2626
▁እጠብቃ	-2627
▁ድመቱዋ	-2628
▁አደረገ።	-2629
▁እንዲሆን	-2630
▁በትምህርት	-2631
▁ነበረበት።	-2632
ሌጅ	-2633
ተን	-2634
▁አቆ	-2635
▁ኢን	-2636
▁ከጠ	-2637
▁ጎረ	-2638
▁ማብራ	-2639
▁አረፍ	-2640
▁አቅር	-2641
▁ፈጣን	-2642
▁በከተማ	-2643
▁አንዱን	-2644
▁እንሄዳ	-2645
▁ደረሰ።	-2646
▁በአትክል	-2647
▁እንስሳት	-2648
▁እየጠበቅ	-2649
▁ሰርቻለሁ።	-2650
ሄዱ	-2651
ባረ	-2652
ቼው	-2653
ነቴ	-2654
ዲስ	-2655
ፋር	-2656
ሱዋን	-2657
ነቱን	-2658
▁ህግ	-2659
▁የኮ	-2660
▁የጎ	-2661
▁ሳምን	-2662
▁ስለተ	-2663
▁በተለ	-2664
▁ባህሪ	-2665
▁አስር	-2666
▁ግድግ	-2667
▁ለአንተ	-2668
▁ማብሰል	-2669
▁በማለዳ	-2670
▁ስብሰባው	-2671
▁አላቸው።	-2672
▁እንዳንተ	-2673
▁ይወዳሉ።	-2674
▁ለመጀመሪያ	-2675
ልባ	-2676
መህ	-2677
የ።	-2678
ግሩ	-2679
ከረ።	-2680
▁ለዛ	-2681
▁ማለ	-2682
▁ማረ	-2683
▁ሽጉ	-2684
▁በሕ	-2685
▁ተር	-2686
▁ተሰ	-2687
▁ፈር	-2688
በትም።	-2689
ናገር።	-2690
▁ተጫዋ	-2691
▁አነሳ	-2692
▁እሞክ	-2693
▁ውሸት	-2694
▁ይደር	-2695
▁ድምፅ	-2696
▁ጀመር	-2697
▁ሁለተኛ	-2698
▁አማራጭ	-2699
▁መድሃኒት	-2700
▁ይገባል።	-2701
▁እያንዳንዱ	-2702
▁አያስፈልግም።	-2703
ልም	-2704
ማረ	-2705
ራብ	-2706
ስቶ	-2707
ቀኝ	-2708
ቀዝ	-2709
ኒው	-2710
ፈ።	-2711
ሳል።	-2712
▁መቶ	-2713
▁መጨ	-2714
▁ከብ	-2715
▁ይን	-2716
▁ዳግ	-2717
▁አላማ	-2718
▁ሄድኩ።	-2719
▁መንሸራ	-2720
▁ማጥፋት	-2721
▁እየሄድ	-2722
▁የቅርብ	-2723
▁የትርፍ	-2724
▁አይወድም።	-2725
▁አመሰግናለሁ	-2726
መቱ	-2727
ከኝ	-2728
▁ዩ	-2729
ናንተ	-2730
ገኝህ	-2731
▁መፃ	-2732
▁ብን	-2733
▁የጠ	-2734
▁ተራራ	-2735
▁ንጹህ	-2736
▁አቁም	-2737
▁የውጭ	-2738
ርስቲያን	-2739
▁ብስክሌ	-2740
▁የሆነው	-2741
▁ለመብላት	-2742
▁ማንኛውም	-2743
▁በአጋጣሚ	-2744
▁እንዳደርግ	-2745
▁ይበልጣል።	-2746
ሩህ	-2747
ሽር	-2748
ይዛ	-2749
ፍር	-2750
ራለሁ	-2751
▁ለወ	-2752
▁ማሽ	-2753
▁ስጋ	-2754
▁ከሚ	-2755
▁ጀም	-2756
ደርጉት	-2757
▁ስላል	-2758
▁በታች	-2759
▁አላስ	-2760
▁የትም	-2761
▁መምህሩ	-2762
▁በጉጉት	-2763
▁ተቀመጥ	-2764
▁ተጠያቂ	-2765
▁አልሰማ	-2766
▁አልፈለ	-2767
▁አደርገ	-2768
▁ሞከርኩ።	-2769
▁ታስባለህ	-2770
▁እንሂድ።	-2771
▁አዝናለሁ።	-2772
▁የመጨረሻው	-2773
▁አይሰማኝም።	-2774
▁አይደለንም።	-2775
▁እናውቃለን።	-2776
መራ	-2777
ነባ	-2778
ንኩ	-2779
ንጉ	-2780
ዞር	-2781
ይዝ	-2782
ሆንክ	-2783
በላው	-2784
▁ስጠ	-2785
▁ቃላ	-2786
▁በኮ	-2787
▁የቡ	-2788
▁ጎዳ	-2789
▁ጠበ	-2790
▁ጥር	-2791
▁ጫጫ	-2792
▁በሚያ	-2793
▁አለን	-2794
▁የሚል	-2795
▁ገበያ	-2796
ፌያለሁ።	-2797
▁ለጥቂት	-2798
▁ሰጠኝ።	-2799
▁አረፍተ	-2800
▁እሱዋም	-2801
▁የበረዶ	-2802
▁ይሰራል	-2803
▁አይችሉም	-2804
▁የሚያምር	-2805
ያት	-2806
ደገ	-2807
ለዋል	-2808
ሽም።	-2809
ቀድሞ	-2810
ወሰድ	-2811
ዟል።	-2812
▁ራሴ	-2813
▁ስኬ	-2814
▁ቢላ	-2815
▁የህ	-2816
▁ፍሬ	-2817
▁ሀገር	-2818
▁ቀጠሮ	-2819
▁በራሴ	-2820
▁ነሽ።	-2821
▁አልቆ	-2822
▁ውሾች	-2823
▁ደህን	-2824
▁ምልክት	-2825
▁ሥራውን	-2826
▁በባህር	-2827
▁ከጥቂት	-2828
▁ክብደት	-2829
▁ወንድም	-2830
▁የሚችል	-2831
▁ቀድሞውኑ	-2832
▁በእንግሊ	-2833
▁አውቶቡሱ	-2834
▁ደቂቃዎች	-2835
▁ትችላላችሁ	-2836
▁ትወዳለች።	-2837
▁እንደሚያስ	-2838
▁ኮምፒውተር	-2839
▁የለብህም።	-2840
ለጥ	-2841
ንታ	-2842
ዘም	-2843
ይና	-2844
ዮች	-2845
ሰማኝ	-2846
ቁረጥ	-2847
ከተል	-2848
ገኘው	-2849
ፖሊስ	-2850
▁ማህ	-2851
▁ምኞ	-2852
▁ሱቅ	-2853
▁ናፍ	-2854
▁ካለ	-2855
▁ያኔ	-2856
▁ጻፍ	-2857
በታል።	-2858
ብሰባው	-2859
ብኝም።	-2860
▁ለማሳ	-2861
▁መሮጥ	-2862
▁መብት	-2863
▁ምላሽ	-2864
▁አቀረ	-2865
▁እስክ	-2866
▁እድሜ	-2867
▁ወታደ	-2868
▁ያስደ	-2869
▁ያነሰ	-2870
▁ድልድ	-2871
▁ለማወቅ	-2872
▁ማሳለፍ	-2873
▁አእምሮ	-2874
▁እራሱን	-2875
▁ከሶስት	-2876
▁ዝርዝር	-2877
▁የተሞላ	-2878
▁ይመለከ	-2879
ችኹዋለሁ።	-2880
▁እየፈለግ	-2881
▁ይሻላል።	-2882
▁ፈተናውን	-2883
▁አደርጋለሁ	-2884
ብቅ	-2885
ታይ	-2886
አይ	-2887
ኮች	-2888
ኸኝ	-2889
ፋሪ	-2890
ራቢያ	-2891
ስተም	-2892
ዝቦል	-2893
ይወቴ	-2894
▁መጋ	-2895
▁ስን	-2896
▁በነ	-2897
▁አወ	-2898
▁ወለ	-2899
▁ጽሑ	-2900
ቸዋል።	-2901
▁ሰራተ	-2902
▁ተጫው	-2903
▁ነፋሱ	-2904
▁ንግድ	-2905
▁አያቴ	-2906
▁እመለ	-2907
▁ጣቢያ	-2908
ወደውም።	-2909
▁ልጃገረ	-2910
▁መከላከ	-2911
▁ማጥናት	-2912
▁ንግግር	-2913
▁ፈለገ።	-2914
▁በጥንቃቄ	-2915
▁የተለመደ	-2916
▁አይደለህም	-2917
ሎቹ	-2918
ራይ	-2919
ጽሀ	-2920
ትንሽ	-2921
▁ሀሳ	-2922
▁ተብ	-2923
▁አፈ	-2924
▁ክራ	-2925
ዘጋጀት	-2926
▁ተሳስ	-2927
▁ያውቅ	-2928
▁ሁኔታው	-2929
▁ልዩነት	-2930
▁አንዳን	-2931
▁አድርጎ	-2932
▁የመኪና	-2933
▁የሚገር	-2934
▁ትሄዳለህ	-2935
▁ነበርን።	-2936
▁አስቀድሞ	-2937
▁ታውቃለህ።	-2938
▁እሆናለሁ።	-2939
በ።	-2940
ካማ	-2941
ኳይ	-2942
ዙ።	-2943
ገቡ	-2944
ጡን	-2945
ጦች	-2946
ምስት	-2947
ቸዋል	-2948
▁ማም	-2949
▁ቀስ	-2950
▁በድ	-2951
▁ቸኮ	-2952
▁ነፍ	-2953
▁እጄ	-2954
▁ዘጋ	-2955
▁ይል	-2956
▁ጸጥ	-2957
ንሰርቱ	-2958
▁ለማጥ	-2959
▁ልምድ	-2960
▁ስኳር	-2961
▁ቤቶች	-2962
▁ብቃት	-2963
▁ተጠም	-2964
▁አበባ	-2965
▁ያለህ	-2966
▁ጥፋት	-2967
▁ለሁለት	-2968
▁ሞከረ።	-2969
▁በፓርኩ	-2970
▁አይርሱ	-2971
▁እናንተ	-2972
▁ወረቀት	-2973
▁ዘግይቶ	-2974
▁የሚሆን	-2975
▁በስተቀር	-2976
▁አልነበር	-2977
▁እራስህን	-2978
▁የማይቻል	-2979
▁በአትክልቱ	-2980
▁የሚያስፈልገ	-2981
?"	-2982
ሮፓ	-2983
ብዛ	-2984
ቦት	-2985
ያየ	-2986
ጋጠ	-2987
ጎብ	-2988
ጠሩ	-2989
ጩኸ	-2990
ለብስ	-2991
ለፊያ	-2992
ረጋጋ	-2993
ቃላይ	-2994
▁ከፈ	-2995
▁ክሬ	-2996
▁ጠላ	-2997
ለዋል።	-2998
ሰብኩም	-2999
ናግርህ	-3000
▁ሥዕል	-3001
▁ባህር	-3002
▁ትልቁ	-3003
▁ከአው	-3004
▁የገባ	-3005
▁ይደው	-3006
▁ጸሀይ	-3007
▁ፈረስ	-3008
▁መደብር	-3009
▁ማንሳት	-3010
▁አሉን።	-3011
▁አጋጥሞ	-3012
▁ከፈለጉ	-3013
▁የወንድ	-3014
▁ለመረዳት	-3015
▁መሰለኝ።	-3016
▁ረሳሁት።	-3017
▁አልነገር	-3018
▁አይተሃል	-3019
▁እንቁላል	-3020
▁ከፈለግክ	-3021
▁የምችለው	-3022
▁የምኖረው	-3023
▁ሁለታችንም	-3024
▁አላሰብኩም	-3025
▁አይሆንም።	-3026
▁በአውስትራሊያ	-3027
ለሽ	-3028
ታሉ	-3029
ካን	-3030
▁ቼ	-3031
ራሉ።	-3032
ራት።	-3033
ሳለህ	-3034
ቦቹን	-3035
ዝናና	-3036
▁ሃሳ	-3037
▁ማዕ	-3038
▁ባት	-3039
▁ተጣ	-3040
▁ዳቦ	-3041
▁ጠር	-3042
ሳለች።	-3043
ፈልጉት	-3044
▁በኩል	-3045
▁ነግሬ	-3046
▁አራት	-3047
▁ከማን	-3048
▁የአው	-3049
▁ቀጠለ።	-3050
▁እወስዳ	-3051
▁የማይታ	-3052
▁መብራቱን	-3053
▁እሞክራለሁ።	-3054
ማል	-3055
ቀበ	-3056
ብረ	-3057
ኑ።	-3058
ንቱ	-3059
ዘዝ	-3060
ደሰ	-3061
ጣሪ	-3062
ፈን	-3063
ሰማህ	-3064
ሰጥህ	-3065
ፎችን	-3066
▁ለሰ	-3067
▁ለት	-3068
▁ንፋ	-3069
▁ከበ	-3070
▁የሕ	-3071
ለህም።	-3072
▁ሸሚዝ	-3073
▁ሻወር	-3074
▁በሆነ	-3075
▁ነው፣	-3076
▁ገዛ።	-3077
▁ጨለማ	-3078
▁ትናገራ	-3079
▁አንዲት	-3080
▁እስማማ	-3081
▁አልፈለገ	-3082
▁ይመስላች	-3083
▁ምክንያታዊ	-3084
▁አልቁዋል።	-3085
▁እንድትሄድ	-3086
▁የማደርገው	-3087
▁የፈረንሳይ	-3088
▁አልፈለኩም።	-3089
▁እንደምትፈልግ	-3090
ረኛ	-3091
ቁት	-3092
ታተ	-3093
ናገ	-3094
ካት	-3095
ክም	-3096
ጉ።	-3097
ጋግ	-3098
ጥረ	-3099
ጧል	-3100
ብስብ	-3101
▁ነን	-3102
▁እዛ	-3103
▁ጉድ	-3104
የኝም።	-3105
ገናኘት	-3106
ፈዋል።	-3107
ፓርታማ	-3108
▁ሌሊት	-3109
▁ምስል	-3110
▁ሬዲዮ	-3111
▁ትመጣ	-3112
▁ትሰራ	-3113
▁ኃላፊ	-3114
▁አትፍ	-3115
▁አየሩ	-3116
▁አይነ	-3117
▁እናት	-3118
▁እየደ	-3119
▁የሚቆ	-3120
▁ጀልባ	-3121
▁ጫጫታ	-3122
ናገርም።	-3123
▁መሆኔን	-3124
▁መነጽር	-3125
▁መንቀጥ	-3126
▁ብርሃን	-3127
▁ተጫዋች	-3128
▁እንስሳ	-3129
▁ሁለቱንም	-3130
▁እንደምታ	-3131
▁እንድሄድ	-3132
▁በመጀመሪያ	-3133
▁እንደምትችል	-3134
▁እናደርጋለን።	-3135
ቅ።	-3136
ነፈ	-3137
ካኝ	-3138
ኮራ	-3139
ዙን	-3140
ዳር	-3141
ፊቱ	-3142
ፋው	-3143
ባከን	-3144
ወስደ	-3145
▁ማሰ	-3146
▁ሰረ	-3147
▁ስሙ	-3148
▁ሽታ	-3149
▁በጸ	-3150
▁በፖ	-3151
▁የቴ	-3152
ቶኛል።	-3153
ጠራጠራ	-3154
▁ለመጠ	-3155
▁ሙዚየ	-3156
▁ሰውዬ	-3157
▁ስምም	-3158
▁በሽታ	-3159
▁ትኩስ	-3160
▁አውጥ	-3161
▁አይፈ	-3162
▁ደስታ	-3163
▁መደወል	-3164
▁መጀመር	-3165
▁ሳይቆይ	-3166
▁እየበላ	-3167
▁ወንጀል	-3168
▁የባህር	-3169
▁የተሰራ	-3170
▁የአለም	-3171
▁ያለብህ	-3172
▁ያደርገ	-3173
▁ይወዳል	-3174
▁ይገባል	-3175
▁ጓደኞቼ	-3176
▁ጫማዎች	-3177
▁ለመድረስ	-3178
▁በማንኛውም	-3179
▁አታውቅም።	-3180
▁የማርያምን	-3181
▁ትመስላለች።	-3182
▁የመጀመሪያው	-3183
19	-3184
ንዙ	-3185
ውል	-3186
ዘር	-3187
ዳም	-3188
ድጃ	-3189
▁ቪ	-3190
▁ዣ	-3191
ሸንፍ	-3192
ክምና	-3193
ውያን	-3194
▁ሕፃ	-3195
▁ማል	-3196
▁ማቆ	-3197
▁ቀና	-3198
▁በጎ	-3199
▁ብዕ	-3200
▁እጁ	-3201
▁ከዛ	-3202
▁ዝና	-3203
▁የዋ	-3204
▁ገደ	-3205
▁ፍን	-3206
ቁዋረጥ	-3207
▁ሄዱ።	-3208
▁ለመክ	-3209
▁ሊነግ	-3210
▁መፍት	-3211
▁በቤተ	-3212
▁ተንኮ	-3213
▁ተገቢ	-3214
▁አሉኝ	-3215
▁አሮጌ	-3216
▁እህት	-3217
▁እኩል	-3218
▁እወድ	-3219
▁የገዛ	-3220
▁ይገር	-3221
▁ጥገና	-3222
▁ለመማር	-3223
▁ተመልሶ	-3224
▁አሳለፍ	-3225
▁አዲሱን	-3226
▁ዣንጥላ	-3227
▁የምችል	-3228
▁የሚያውቅ	-3229
▁ይወስዳል	-3230
▁አለባቸው።	-3231
▁ደርሱዋል።	-3232
▁ይመስላችኹዋል	-3233
መጡ	-3234
ስቸ	-3235
ስን	-3236
ሹን	-3237
ሻው	-3238
ችም	-3239
ኖሚ	-3240
ዳሚ	-3241
ግን	-3242
ጮህ	-3243
ፐር	-3244
ምህር	-3245
ራችን	-3246
ሰበ።	-3247
ሰጠኝ	-3248
ነው።	-3249
ፊያው	-3250
▁ለሌ	-3251
▁በጨ	-3252
▁ፈራ	-3253
▁ፈጅ	-3254
▁ለእር	-3255
▁ለእሱ	-3256
▁ተገኝ	-3257
▁አስቆ	-3258
▁አቅም	-3259
▁እሰማ	-3260
▁እገባ	-3261
▁ውጤት	-3262
▁የተመ	-3263
ቼዋለሁ።	-3264
▁መቀመጥ	-3265
▁አድርግ	-3266
▁እፈልግ	-3267
▁ክፍሉን	-3268
▁ወሰደ።	-3269
▁ውሻውን	-3270
▁ማብራሪያ	-3271
▁ትወዳለህ	-3272
▁እሆናለሁ	-3273
▁እየሰራሁ	-3274
▁እየጨመረ	-3275
▁ያለብዎት	-3276
▁ያደረገው	-3277
▁ለማንኛውም	-3278
▁መንከባከብ	-3279
▁አትፈልግም	-3280
▁እንደተፈጠረ	-3281
ቀዘ	-3282
ነቃ	-3283
ካታ	-3284
ዘዘ	-3285
ጮች	-3286
ፍን	-3287
▁ቻ	-3288
ለበት	-3289
ገናኝ	-3290
▁ህፃ	-3291
▁ብላ	-3292
▁ኩኪ	-3293
▁ካና	-3294
▁መርከ	-3295
▁መያዝ	-3296
▁ማሽን	-3297
▁ባለው	-3298
▁ነጥብ	-3299
▁አልታ	-3300
▁አትመ	-3301
▁አጥብ	-3302
▁ይሆን	-3303
▁ደረሰ	-3304
▁ገንዳ	-3305
▁ላገኝህ	-3306
▁መልቀቅ	-3307
▁መራመድ	-3308
▁በተሻለ	-3309
▁ብቻህን	-3310
▁እየጠበ	-3311
▁የለኝም	-3312
▁የሚገባ	-3313
▁የአካል	-3314
▁ያልሆነ	-3315
▁ሳምንታት	-3316
▁አስተዋይ	-3317
▁እንደማል	-3318
▁ይቻላል።	-3319
▁መንሸራተት	-3320
▁ተመልከት።	-3321
▁እንገናኝ።	-3322
▁አልወደውም።	-3323
▁አውቀዋለሁ።	-3324
▁አይደለችም።	-3325
▁አደርገዋለሁ።	-3326
ስቲ	-3327
ከት	-3328
ኩኝ	-3329
ፈጸ	-3330
ፋል	-3331
ረዱኝ	-3332
ቃል።	-3333
ብስክ	-3334
ቻቸው	-3335
ዳመጥ	-3336
ፋል።	-3337
▁ልማ	-3338
▁ሞተ	-3339
▁በቡ	-3340
▁ነች	-3341
▁ያየ	-3342
▁ይሰ	-3343
▁ፓስ	-3344
ጣለች።	-3345
▁ለመዋ	-3346
▁ምስጢ	-3347
▁ባለሙ	-3348
▁ታማኝ	-3349
▁እመክ	-3350
▁ወንዝ	-3351
▁ደካማ	-3352
▁ጋዜጣ	-3353
▁ጥንድ	-3354
ደርግም።	-3355
▁መርከብ	-3356
▁ስምህን	-3357
▁ስጠኝ።	-3358
▁በሦስት	-3359
▁በባቡር	-3360
▁በአሁኑ	-3361
▁አልሆነ	-3362
▁ከወላጆ	-3363
▁ወደቀ።	-3364
▁ገባሁ።	-3365
▁በመንገድ	-3366
▁ብሉዋል።	-3367
▁ተውኩት።	-3368
▁አስተካክ	-3369
▁አቅራቢያ	-3370
▁አድርግ።	-3371
▁እራስዎን	-3372
▁የእንግሊ	-3373
▁ክርስቲያን	-3374
▁እንድታደርግ	-3375
▁አስታውሳለሁ።	-3376
ሪፍ	-3377
ስበ	-3378
ንባ	-3379
ኗል	-3380
ከፈ	-3381
ኮር	-3382
ዛኝ	-3383
ጓዴ	-3384
ጭን	-3385
ፉት	-3386
▁5	-3387
,00	-3388
ሃለሁ	-3389
ቀዝቀ	-3390
ኖችን	-3391
ከንድ	-3392
ኩበት	-3393
▁ምት	-3394
▁ሰክ	-3395
▁ከጎ	-3396
▁ከጣ	-3397
▁ዕዳ	-3398
▁ጫፍ	-3399
,000	-3400
ረንጓዴ	-3401
ኹዋት።	-3402
▁ለዚያ	-3403
▁ቆመ።	-3404
▁በሌላ	-3405
▁ቢላዋ	-3406
▁ወለድ	-3407
▁ይረዳ	-3408
▁ፕሮጀ	-3409
▁መበደር	-3410
▁ቁልፉን	-3411
▁ተበላሽ	-3412
▁ተናጋሪ	-3413
▁አይኖች	-3414
▁ዕረፍት	-3415
▁ይህንኑ	-3416
▁ጥፋተኛ	-3417
▁ንገረኝ።	-3418
▁የሚፈልጉ	-3419
▁አብዛኛውን	-3420
▁ይመልከቱ።	-3421
▁ደብዳቤውን	-3422
▁አይታየኝም።	-3423
▁የምፈልገውን	-3424
::	-3425
ላዊ	-3426
ምሩ	-3427
ቀይ	-3428
ቃድ	-3429
ቃጠ	-3430
ቢሮ	-3431
ባ።	-3432
ናን	-3433
ኪያ	-3434
ወጡ	-3435
ዝቡ	-3436
ድግ	-3437
▁ጌ	-3438
መለሰ	-3439
ረው።	-3440
ብኝ።	-3441
ንያው	-3442
ጠብቁ	-3443
▁ሥር	-3444
▁በካ	-3445
▁ብል	-3446
▁ወዳ	-3447
▁ወጪ	-3448
▁ይስ	-3449
ቀዝቀዣ	-3450
▁ለመፍ	-3451
▁ሳንቲ	-3452
▁በየአ	-3453
▁ተሸፍ	-3454
▁አሳይ	-3455
▁አቁዋ	-3456
▁አካል	-3457
▁አውሎ	-3458
▁እኛን	-3459
▁እየዘ	-3460
▁ክፍያ	-3461
▁ወዴት	-3462
▁የወደ	-3463
▁ይጀም	-3464
▁ግብዣ	-3465
▁ለመያዝ	-3466
▁አላቸው	-3467
▁እውነታ	-3468
▁እየመጣ	-3469
▁ከእሱዋ	-3470
▁የምግብ	-3471
▁የጥርስ	-3472
▁ያላቸው	-3473
▁ይመጣል	-3474
▁ድንጋይ	-3475
▁ለማንበብ	-3476
▁ተንኮለኛ	-3477
▁አረንጓዴ	-3478
▁እንደሚሰራ	-3479
▁እንደሚፈልግ	-3480
▁እጠብቃለሁ።	-3481
▁ፈረንሳይኛን	-3482
ሪካ	-3483
ቃል	-3484
ባሪ	-3485
ቨር	-3486
ንግድ	-3487
ጊዜው	-3488
ጌረዳ	-3489
▁መካ	-3490
▁እጆ	-3491
▁የኢ	-3492
▁ፕሬ	-3493
ታቸውን	-3494
ታችንን	-3495
ጎብኘት	-3496
▁ሚስት	-3497
▁ሞተ።	-3498
▁በመቶ	-3499
▁አሪፍ	-3500
▁አርፍ	-3501
▁አጎቴ	-3502
▁እመጣ	-3503
▁እስር	-3504
▁እግሬ	-3505
▁ከቤተ	-3506
▁የማል	-3507
▁ድንገ	-3508
▁ገናን	-3509
▁ጠርሙ	-3510
▁ጡረታ	-3511
▁ፖስታ	-3512
▁መደነስ	-3513
▁መፍትሄ	-3514
▁ማቆሚያ	-3515
▁ስለሆነ	-3516
▁ስልኩን	-3517
▁ተስማሚ	-3518
▁ታስታው	-3519
▁አበቦች	-3520
▁እንዳታ	-3521
▁ያስታው	-3522
▁ያስከፍ	-3523
▁ይኖራል	-3524
▁ለመውጣት	-3525
▁ላናግርህ	-3526
▁ተመልከት	-3527
▁ጓደኛሞች	-3528
▁መከረችው።	-3529
▁ማስተካከል	-3530
▁አደረግሁ።	-3531
ሃዊ	-3532
ሊን	-3533
ልዎ	-3534
ርሃ	-3535
ባቴ	-3536
ቤቱ	-3537
ነካ	-3538
ወግ	-3539
ደን	-3540
ገስ	-3541
ጎድ	-3542
ለት።	-3543
ስቶች	-3544
ቶኪዮ	-3545
ጽዳት	-3546
ፈጠር	-3547
▁ላለ	-3548
▁ሥጋ	-3549
▁ስቴ	-3550
▁ቀበ	-3551
▁አጽ	-3552
▁እሺ	-3553
▁ውይ	-3554
▁ዕቃ	-3555
▁ደም	-3556
▁ጩኸ	-3557
▁ጮኸ	-3558
ቻቸውን	-3559
▁ለመን	-3560
▁ስሙን	-3561
▁በቁም	-3562
▁ብሩህ	-3563
▁እሰጥ	-3564
▁ዘመን	-3565
▁የምና	-3566
▁የተሻ	-3567
▁የጠፋ	-3568
▁ያዘ።	-3569
▁ይበላ	-3570
▁ግምት	-3571
▁ፈልጎ	-3572
ንቀሳቀስ	-3573
▁መረዳት	-3574
▁ማጠቢያ	-3575
▁በቅርብ	-3576
▁ቢኖረኝ	-3577
▁አንብቤ	-3578
▁ክራባት	-3579
▁የሚሰራ	-3580
▁ያስባል	-3581
▁ድመቶች	-3582
▁ጓደኛህ	-3583
▁ጠንክሮ	-3584
▁ፊልሞች	-3585
▁አልፏል።	-3586
▁እነዚያን	-3587
▁የማርያም	-3588
▁ያደርጋል	-3589
▁በስብሰባው	-3590
▁ነበረብን።	-3591
▁አዝኛለሁ።	-3592
▁እንዳለብን	-3593
▁የለብኝም።	-3594
▁የለብዎትም	-3595
▁ይፈልጋሉ።	-3596
▁አላገኘሁም።	-3597
▁አልነበረውም።	-3598
▁አልነበረብኝም።	-3599
ለታ	-3600
ልን	-3601
ሎጂ	-3602
ሩም	-3603
ራበ	-3604
በባ	-3605
ኪስ	-3606
ደጋ	-3607
ጸጸ	-3608
ፈታ	-3609
ሊዮን	-3610
ሌክት	-3611
ኮኖሚ	-3612
ወድቅ	-3613
ፈጥሮ	-3614
▁ለዘ	-3615
▁ልቦ	-3616
▁ቀል	-3617
▁ውሸ	-3618
▁ይሂ	-3619
▁ገም	-3620
▁ጠራ	-3621
▁ጸሀ	-3622
ፈጠረው	-3623
▁መጓዝ	-3624
▁በራሱ	-3625
▁አሥር	-3626
▁አርጅ	-3627
▁አውቄ	-3628
▁አገል	-3629
▁ዘገባ	-3630
▁የሰው	-3631
▁ደርሶ	-3632
▁ግማሽ	-3633
▁ጥልቅ	-3634
▁ጨረቃ	-3635
▁ጨካኝ	-3636
▁ለእራት	-3637
▁መልበስ	-3638
▁መቀየር	-3639
▁መጨረስ	-3640
▁ሚስጥር	-3641
▁ሰከንድ	-3642
▁እንዳላ	-3643
▁እየሄደ	-3644
▁ከኹዋላ	-3645
▁የነገር	-3646
▁ጉዳዩን	-3647
▁ጭንቅላ	-3648
▁ለመቆየት	-3649
▁ለእርዳታ	-3650
▁ማስወገድ	-3651
▁ትሆናለህ	-3652
▁አስቸኳይ	-3653
▁አፓርታማ	-3654
▁የአትክል	-3655
▁ነበረብህ።	-3656
▁አውሮፕላን	-3657
▁የትምህርት	-3658
መታ	-3659
መኛ	-3660
ረጠ	-3661
ራሲ	-3662
ከፊ	-3663
ወዱ	-3664
ያዙ	-3665
ዲያ	-3666
ጫው	-3667
ሁን።	-3668
ወያይ	-3669
ጥጥር	-3670
▁ለበ	-3671
▁መሀ	-3672
▁ማክ	-3673
▁ሳል	-3674
▁በቴ	-3675
▁ትኬ	-3676
▁ከስ	-3677
▁ከቁ	-3678
▁ውስ	-3679
▁ይጨ	-3680
▁ጉል	-3681
ላችሁ።	-3682
ታለን።	-3683
▁ለመል	-3684
▁ለመቀ	-3685
▁በሰማ	-3686
▁በግል	-3687
▁ይይዛ	-3688
▁ይጠቀ	-3689
▁ደግሞ	-3690
▁ድግስ	-3691
▁ጠፋ።	-3692
▁ጨርሰ	-3693
▁መልሱን	-3694
▁መስመር	-3695
▁አሰበ።	-3696
▁አሳፋሪ	-3697
▁ከመሄድ	-3698
▁ይንከባ	-3699
▁መኪናዬን	-3700
▁ተመለከት	-3701
▁እጠራጠራ	-3702
▁የትራፊክ	-3703
▁ልጃገረዶች	-3704
▁ይወስዳል።	-3705
▁እንደማስበው	-3706
▁ሺ	-3707
▁ቫ	-3708
▁ቱ	-3709
▁ጂ	-3710
ተኛው	-3711
ኳት።	-3712
ገባት	-3713
ጣጠር	-3714
▁ሞት	-3715
▁ያም	-3716
▁ፈረ	-3717
▁ፋይ	-3718
ሰብኩት	-3719
ፓርቲው	-3720
▁ለእኛ	-3721
▁ልሄድ	-3722
▁ልጁን	-3723
▁መጽሔ	-3724
▁ሰባት	-3725
▁በአጠ	-3726
▁ባንክ	-3727
▁ተሰር	-3728
▁ንፋስ	-3729
▁አባቱ	-3730
▁አገባ	-3731
▁እውን	-3732
▁ከስራ	-3733
▁ከክፍ	-3734
▁የግል	-3735
▁ልጆቹን	-3736
▁መቀጠል	-3737
▁መነሳት	-3738
▁መክፈት	-3739
▁ማሸነፍ	-3740
▁በመስኮ	-3741
▁አታስብ	-3742
▁ወጣሁ።	-3743
▁የእሳት	-3744
▁ጃንጥላ	-3745
▁ጽጌረዳ	-3746
▁ፕሮግራ	-3747
▁በርሳቸው	-3748
▁አይሆንም	-3749
▁የነበረው	-3750
▁ያድርጉ።	-3751
▁በአውቶቡስ	-3752
▁ቴሌቪዥኑን	-3753
▁አይደለሁም	-3754
▁እናድርግ።	-3755
▁እንደሚችሉ	-3756
▁ያልተለመደ	-3757
▁ያድርጉት።	-3758
ማን	-3759
በሉ	-3760
ዳዩ	-3761
ፋኝ	-3762
ሁትን	-3763
ማማኝ	-3764
ሳምን	-3765
ናደደ	-3766
ደርደ	-3767
ገረመ	-3768
▁በታ	-3769
▁ኃይ	-3770
▁ዘዴ	-3771
▁ጓጉ	-3772
▁	-3773
ን	-3774
።	-3775
ም	-3776
ለ	-3777
አ	-3778
ት	-3779
ው	-3780
ል	-3781
እ	-3782
በ	-3783
ነ	-3784
ር	-3785
ስ	-3786
መ	-3787
ይ	-3788
የ	-3789
ደ	-3790
ህ	-3791
ያ	-3792
ተ	-3793
ሁ	-3794
ብ	-3795
ች	-3796
ላ	-3797
ማ	-3798
ድ	-3799
ገ	-3800
ረ	-3801
ግ	-3802
ና	-3803
ወ	-3804
ሰ	-3805
ከ	-3806
ጥ	-3807
.	-3808
ቶ	-3809
?	-3810
ታ	-3811
ፈ	-3812
ራ	-3813
ኝ	-3814
ጠ	-3815
ቀ	-3816
ዋ	-3817
ባ	-3818
ጣ	-3819
ክ	-3820
ዳ	-3821
ጋ	-3822
ቅ	-3823
ሳ	-3824
ሉ	-3825
ኛ	-3826
ፍ	-3827
ዎ	-3828
ሆ	-3829
ዚ	-3830
ሚ	-3831
ቃ	-3832
ቱ	-3833
ኩ	-3834
ሩ	-3835
ሱ	-3836
ጊ	-3837
ዜ	-3838
ካ	-3839
ቤ	-3840
ቻ	-3841
ዝ	-3842
ዘ	-3843
ዛ	-3844
ሪ	-3845
ኔ	-3846
ቸ	-3847
ሽ	-3848
ቁ	-3849
ሞ	-3850
ሄ	-3851
ቆ	-3852
ሮ	-3853
ዙ	-3854
ሊ	-3855
ጉ	-3856
ጨ	-3857
ሻ	-3858
ቡ	-3859
ዬ	-3860
ሬ	-3861
ፋ	-3862
ሃ	-3863
ዲ	-3864
ቴ	-3865
ሙ	-3866
ኖ	-3867
ሌ	-3868
ቦ	-3869
ሀ	-3870
ፊ	-3871
ኑ	-3872
ጽ	-3873
ጀ	-3874
ጅ	-3875
ጫ	-3876
ቢ	-3877
ሎ	-3878
ጎ	-3879
ጭ	-3880
ኮ	-3881
ዴ	-3882
ቂ	-3883
ሜ	-3884
ኘ	-3885
ኪ	-3886
ዱ	-3887
ዶ	-3888
ቹ	-3889
ጆ	-3890
ቼ	-3891
ሸ	-3892
ጓ	-3893
ኹ	-3894
ሥ	-3895
ጃ	-3896
፣	-3897
ሲ	-3898
ሴ	-3899
ፎ	-3900
ዕ	-3901
ጡ	-3902
ሶ	-3903
ቲ	-3904
ጸ	-3905
ፓ	-3906
ኞ	-3907
ዩ	-3908
ዊ	-3909
ፖ	-3910
"	-3911
ቄ	-3912
ኳ	-3913
ፉ	-3914
,	-3915
ሕ	-3916
ፕ	-3917
0	-3918
!	-3919
ጦ	-3920
ኬ	-3921
ጌ	-3922
ፒ	-3923
ጻ	-3924
ኒ	-3925
ዮ	-3926
ጄ	-3927
ፃ	-3928
ጁ	-3929
ሯ	-3930
ዞ	-3931
ሂ	-3932
ኸ	-3933
ሹ	-3934
ኙ	-3935
ቪ	-3936
ጤ	-3937
ሦ	-3938
1	-3939
ጂ	-3940
ጹ	-3941
ፌ	-3942
ጴ	-3943
ጮ	-3944
ኢ	-3945
ሾ	-3946
ዥ	-3947
ቺ	-3948
ፁ	-3949
ኤ	-3950
ፅ	-3951
3	-3952
ፏ	-3953
ዣ	-3954
ኗ	-3955
2	-3956
ዷ	-3957
ሣ	-3958
-	-3959
ኃ	-3960
ኦ	-3961
ጧ	-3962
ጪ	-3963
ሺ	-3964
9	-3965
5	-3966
ሼ	-3967
ጢ	-3968
፡	-3969
ቫ	-3970
ቾ	-3971
e	-3972
ሔ	-3973
:	-3974
ጩ	-3975
ጬ	-3976
ዟ	-3977
8	-3978
6	-3979
ሑ	-3980
ቨ	-3981
4	-3982
ዉ	-3983
a	-3984
7	-3985
ፐ	-3986
n	-3987
s	-3988
ጇ	-3989
ፔ	-3990
ቭ	-3991
r	-3992
i	-3993
y	-3994
o	-3995
