<pad>	0
<unk>	0
<s>	0
</s>	0
aa	-0
ee	-1
an	-2
▁አ	-3
oo	-4
ii	-5
▁h	-6
▁d	-7
▁k	-8
▁እ	-9
uu	-10
▁t	-11
▁b	-12
▁a	-13
ti	-14
ar	-15
▁ነ	-16
▁g	-17
kk	-18
▁i	-19
▁n	-20
▁በ	-21
▁m	-22
in	-23
▁s	-24
▁የ	-25
aan	-26
am	-27
at	-28
▁j	-29
▁q	-30
dh	-31
al	-32
ab	-33
▁hin	-34
ch	-35
ir	-36
▁መ	-37
▁dh	-38
▁ይ	-39
▁w	-40
ur	-41
▁እን	-42
ees	-43
▁ነው	-44
da	-45
▁akk	-46
eess	-47
aal	-48
▁y	-49
▁qab	-50
un	-51
een	-52
▁f	-53
ም።	-54
tti	-55
oom	-56
▁is	-57
▁bar	-58
ለሁ	-59
ana	-60
▁jir	-61
ቶም	-62
▁toom	-63
ra	-64
▁ያ	-65
▁akka	-66
▁ለ	-67
▁ማ	-68
▁ቶም	-69
aat	-70
atti	-71
▁ከ	-72
chuu	-73
ል።	-74
▁tur	-75
▁ነው።	-76
is	-77
baa	-78
▁ተ	-79
▁to	-80
iin	-81
ምን	-82
um	-83
ni	-84
ለሁ።	-85
yy	-86
▁ብ	-87
▁ወ	-88
dha	-89
er	-90
▁ta	-91
▁dan	-92
▁ስ	-93
▁keess	-94
aar	-95
▁አይ	-96
▁ነበ	-97
▁koo	-98
▁ት	-99
▁barbaa	-100
aaf	-101
▁tokk	-102
▁እንደ	-103
dd	-104
▁ho	-105
ama	-106
il	-107
eroo	-108
▁baa	-109
▁አል	-110
▁yeroo	-111
▁ture	-112
▁ሰ	-113
▁አለ	-114
ፈል	-115
▁tokko	-116
▁waan	-117
▁ይህ	-118
▁o	-119
▁ው	-120
ag	-121
bb	-122
▁ነበር	-123
▁kana	-124
▁dee	-125
ta	-126
ma	-127
▁bee	-128
▁ir	-129
▁gar	-130
▁dhu	-131
▁go	-132
ገር	-133
▁je	-134
▁beek	-135
▁c	-136
iif	-137
▁ምን	-138
jj	-139
raa	-140
▁ሁ	-141
▁ላ	-142
akk	-143
▁ar	-144
▁maal	-145
▁qaba	-146
eeny	-147
ዚህ	-148
uun	-149
▁kun	-150
▁wal	-151
▁ል	-152
▁yaa	-153
▁danda	-154
▁hun	-155
ጣም	-156
oon	-157
▁arg	-158
▁nan	-159
▁በጣም	-160
ጊዜ	-161
▁isaa	-162
te	-163
ኝ።	-164
▁am	-165
taa	-166
eera	-167
ውን	-168
sa	-169
▁አን	-170
▁ነበር።	-171
ne	-172
tu	-173
itti	-174
▁ላይ	-175
▁jira	-176
la	-177
▁du	-178
▁kan	-179
uuf	-180
▁አስ	-181
▁ጥ	-182
maa	-183
▁ጊዜ	-184
saa	-185
▁gu	-186
▁baay	-187
▁qo	-188
ስጥ	-189
ff	-190
▁na	-191
▁ወደ	-192
▁l	-193
▁ውስጥ	-194
▁ደ	-195
▁ni	-196
▁natti	-197
▁an	-198
▁ቀ	-199
▁ነገር	-200
achuu	-201
tii	-202
▁ko	-203
▁sana	-204
ችን	-205
ph	-206
▁jedh	-207
ፈልጋ	-208
ll	-209
▁nam	-210
▁የሚ	-211
▁kee	-212
▁x	-213
ነት	-214
▁hojj	-215
▁mee	-216
▁si	-217
▁dand	-218
▁sun	-219
▁hojje	-220
▁deem	-221
adh	-222
ለህ	-223
መስ	-224
▁ም	-225
ችላ	-226
ድረ	-227
▁ani	-228
▁fakk	-229
▁akkas	-230
ratti	-231
▁mi	-232
iis	-233
▁አይደ	-234
▁ish	-235
▁ገ	-236
▁in	-237
ት።	-238
▁dubb	-239
ው።	-240
aata	-241
▁ይህን	-242
▁አላ	-243
▁nama	-244
▁እና	-245
ሁን	-246
▁ቤ	-247
im	-248
▁እየ	-249
▁dhug	-250
▁ብዙ	-251
▁keessa	-252
tee	-253
na	-254
▁irratti	-255
ደር	-256
▁jiru	-257
ን።	-258
daa	-259
▁jaal	-260
fa	-261
iq	-262
▁ለመ	-263
▁itti	-264
▁gaar	-265
ሆን	-266
ሆነ	-267
ol	-268
▁sa	-269
yaa	-270
▁ጠ	-271
di	-272
▁የተ	-273
ri	-274
ች።	-275
ww	-276
▁ሁሉ	-277
▁qabu	-278
eessa	-279
▁haa	-280
ዎች	-281
ድረግ	-282
ዋል።	-283
ata	-284
▁ታ	-285
all	-286
ችል	-287
▁እንዳ	-288
▁har	-289
ddaa	-290
▁ጋ	-291
▁ግ	-292
▁gaarii	-293
▁boo	-294
ann	-295
▁gochuu	-296
ala	-297
uma	-298
▁barbaada	-299
▁yaada	-300
▁dhag	-301
anaa	-302
oota	-303
▁mana	-304
chis	-305
▁ku	-306
▁የም	-307
▁gara	-308
▁il	-309
▁አለብ	-310
aalaa	-311
ለው	-312
▁ማን	-313
chaa	-314
▁ባ	-315
▁ፈ	-316
▁as	-317
▁hunda	-318
▁ሰው	-319
▁ለማ	-320
▁dha	-321
ንድ	-322
en	-323
▁ጋር	-324
du	-325
rii	-326
eenya	-327
▁አንድ	-328
▁አሁን	-329
▁እሱ	-330
▁ስለ	-331
ga	-332
ate	-333
▁ga	-334
ሄድ	-335
▁ishee	-336
▁hoj	-337
yyee	-338
▁gaaf	-339
nk	-340
▁fu	-341
ውቅ	-342
▁sir	-343
▁ra	-344
▁gal	-345
▁dur	-346
▁እፈልጋ	-347
▁r	-348
▁isa	-349
▁fi	-350
▁ጥሩ	-351
▁ምንም	-352
ውቃ	-353
▁ያን	-354
▁ማድረግ	-355
amma	-356
▁akkan	-357
tuu	-358
oonni	-359
▁waliin	-360
▁deeb	-361
▁dhuf	-362
▁ken	-363
▁በአ	-364
▁ሊ	-365
ኝም።	-366
▁በእ	-367
ስተ	-368
▁waa	-369
ba	-370
▁ቤት	-371
▁jedheen	-372
▁ha	-373
▁beeku	-374
▁ብቻ	-375
ኛል።	-376
anii	-377
yyaa	-378
▁ይመስ	-379
▁bi	-380
▁ee	-381
▁barbaachis	-382
▁ati	-383
▁naaf	-384
▁isaan	-385
▁miti	-386
aataa	-387
▁bo	-388
▁ክ	-389
ቸው	-390
ርያ	-391
▁mu	-392
▁of	-393
▁u	-394
▁የለ	-395
▁nu	-396
ame	-397
▁እኔ	-398
go	-399
በት	-400
▁እዚህ	-401
▁af	-402
▁አይደለ	-403
▁ba	-404
gaa	-405
▁baayyee	-406
▁amma	-407
▁namni	-408
▁keessatti	-409
▁him	-410
▁akkam	-411
aatii	-412
alee	-413
atu	-414
▁እር	-415
ስት	-416
▁keessan	-417
▁irraa	-418
▁dhaga	-419
ሳይ	-420
dii	-421
▁p	-422
qa	-423
▁qofa	-424
▁ና	-425
dhu	-426
▁dhi	-427
▁ለምን	-428
▁booda	-429
ህን	-430
▁bil	-431
amaa	-432
alaa	-433
ዴት	-434
▁ያንን	-435
ዋል	-436
▁so	-437
▁wan	-438
ደረ	-439
▁mur	-440
re	-441
si	-442
▁dar	-443
▁ዛ	-444
▁ny	-445
▁dandeess	-446
llee	-447
▁guddaa	-448
▁hir	-449
▁hojii	-450
ፈልግ	-451
nkol	-452
▁ያለ	-453
▁yaad	-454
ገና	-455
ዚያ	-456
ንት	-457
▁fakkaata	-458
▁እንዴት	-459
▁maaliif	-460
▁ከእ	-461
▁ilaal	-462
ነበ	-463
chi	-464
▁የእ	-465
▁konkol	-466
▁ab	-467
▁እንዲ	-468
▁ma	-469
▁ይችላ	-470
iqq	-471
on	-472
ግር	-473
▁afaan	-474
ቱን	-475
ሁ።	-476
ለት	-477
ቅር	-478
gaar	-479
ሰራ	-480
ወዳ	-481
▁hundi	-482
ኹዋ	-483
▁የማ	-484
▁መን	-485
▁han	-486
▁ij	-487
▁አት	-488
▁beeka	-489
የት	-490
aas	-491
▁rakk	-492
▁ካ	-493
▁xiqq	-494
▁የት	-495
▁keessaa	-496
▁ji	-497
▁ነገ	-498
▁gargaar	-499
▁ድ	-500
▁os	-501
▁eeg	-502
ummaa	-503
▁caalaa	-504
▁gamma	-505
▁በመ	-506
▁bir	-507
ህል	-508
umaa	-509
▁አመ	-510
ገባ	-511
ችልም።	-512
▁yoo	-513
▁sh	-514
phaa	-515
ru	-516
▁ዛሬ	-517
▁jiraa	-518
▁እንድ	-519
ርያም	-520
▁mii	-521
▁keenya	-522
▁እንደሚ	-523
ረን	-524
▁inni	-525
ሰማ	-526
yya	-527
ራት	-528
itaa	-529
▁ሁሉም	-530
▁guyyaa	-531
▁እያ	-532
cha	-533
▁ቦ	-534
duu	-535
▁jaall	-536
▁ka	-537
ool	-538
▁jal	-539
▁ትን	-540
ሉ።	-541
nu	-542
▁የመ	-543
▁wanti	-544
aatu	-545
▁ብዬ	-546
ፊት	-547
qab	-548
ub	-549
kan	-550
▁isin	-551
ka	-552
▁guu	-553
▁ሳ	-554
ለች።	-555
ተኛ	-556
▁do	-557
▁እባ	-558
▁እስ	-559
መለ	-560
ውቅም።	-561
ላል	-562
kaa	-563
sii	-564
▁sar	-565
▁ዘ	-566
▁wa	-567
tiin	-568
▁dab	-569
▁jalqab	-570
▁አያ	-571
▁kar	-572
▁እፈልጋለሁ።	-573
▁ጉ	-574
▁ቆ	-575
▁ያህል	-576
▁dhuguma	-577
▁yeroon	-578
▁qabda	-579
▁qabna	-580
tan	-581
▁ፍ	-582
▁deebi	-583
ችሁ	-584
▁eeny	-585
▁ቁ	-586
ሪያ	-587
▁ዝ	-588
▁ሀ	-589
▁taph	-590
ህ።	-591
ድር	-592
▁dhaa	-593
amu	-594
ኹዋላ	-595
▁ትንሽ	-596
▁የአ	-597
ትን	-598
eer	-599
ስዎ	-600
bil	-601
▁irra	-602
▁ች	-603
▁war	-604
▁kitaa	-605
▁ያስ	-606
▁meerii	-607
ኩ።	-608
iyaa	-609
▁ግን	-610
▁ሞ	-611
ataa	-612
ኪና	-613
▁ነኝ።	-614
▁bilbil	-615
umur	-616
ንዘ	-617
▁bakk	-618
▁qor	-619
yyaan	-620
ጣት	-621
eeff	-622
eef	-623
▁dhiis	-624
▁da	-625
dduu	-626
▁far	-627
▁aman	-628
▁መስ	-629
ናል።	-630
aala	-631
ምህ	-632
▁dandeeny	-633
dda	-634
ለን።	-635
ጀመ	-636
▁barbaadu	-637
▁ሌ	-638
iyy	-639
ቸው።	-640
▁siif	-641
▁እንደሆነ	-642
ዋን	-643
ጓደ	-644
annoo	-645
ገረ	-646
▁ሲ	-647
▁bu	-648
qaa	-649
▁ስራ	-650
▁ሙ	-651
de	-652
▁"	-653
ርት	-654
▁በኹዋላ	-655
▁በዚህ	-656
▁ክፍ	-657
▁barr	-658
ባት	-659
▁jaalla	-660
▁hanga	-661
▁ገንዘ	-662
ንም	-663
ፈልገ	-664
▁መጠ	-665
▁osoo	-666
▁aj	-667
ars	-668
dhe	-669
▁አውቃ	-670
ለኛል።	-671
አት	-672
ansaa	-673
▁uff	-674
ቶች	-675
▁isheen	-676
▁darb	-677
▁bal	-678
▁manaa	-679
ansaay	-680
▁ን	-681
▁konkolaataa	-682
oof	-683
▁ቢ	-684
▁san	-685
▁roo	-686
▁nyaa	-687
▁faransaay	-688
▁ሥ	-689
ረንሳይ	-690
▁አይደለም።	-691
ሰብ	-692
▁turre	-693
▁akkamitti	-694
atte	-695
▁fa	-696
▁seen	-697
▁toomii	-698
▁ከአ	-699
▁isaanii	-700
▁መጽ	-701
dhaa	-702
መጣ	-703
aadha	-704
▁kaa	-705
▁garuu	-706
▁ማርያም	-707
ማሪ	-708
ወት	-709
ill	-710
allee	-711
ናገር	-712
▁አልችልም።	-713
ክል	-714
▁አሉ	-715
▁maalla	-716
▁ይህንን	-717
▁sitti	-718
▁qu	-719
▁ጓደ	-720
anne	-721
▁barbaachisa	-722
ገድ	-723
▁kenn	-724
amuu	-725
ረዳ	-726
▁የሚያ	-727
aaraa	-728
ኘት	-729
▁እነ	-730
▁ነበረ	-731
▁hund	-732
ነበረ	-733
▁ሰዎች	-734
ጨረ	-735
▁dhab	-736
▁እንዳለ	-737
▁bakka	-738
▁asitti	-739
▁ይመስለኛል።	-740
ናል	-741
▁አውቃለሁ።	-742
lf	-743
▁bis	-744
ፈለ	-745
mii	-746
ደርጋ	-747
▁ተስ	-748
if	-749
▁እንደም	-750
kii	-751
▁የበ	-752
▁እፈልጋለሁ	-753
chuun	-754
ዬን	-755
▁daa	-756
▁መኪና	-757
▁xiqqoo	-758
▁turte	-759
ልቅ	-760
dhaan	-761
▁ለእ	-762
▁ijoo	-763
ውነት	-764
▁amm	-765
ላል።	-766
ታው	-767
▁አላውቅም።	-768
ረንሳይኛ	-769
aate	-770
▁እችላ	-771
▁sirrii	-772
ዎን	-773
▁hal	-774
▁wag	-775
▁ማንም	-776
ንተ	-777
▁በፊት	-778
▁tola	-779
ggo	-780
▁dogo	-781
▁fudh	-782
▁ib	-783
▁mir	-784
ዎት	-785
▁hi	-786
▁fudha	-787
▁lam	-788
▁ገንዘብ	-789
▁eenyu	-790
ዎችን	-791
▁አው	-792
▁መጽሀ	-793
▁jet	-794
▁አሳ	-795
▁yaal	-796
▁dogoggo	-797
▁መሄድ	-798
▁መሆን	-799
▁halkan	-800
ላት	-801
▁dhukk	-802
▁ol	-803
eet	-804
▁መል	-805
▁suu	-806
ገኘ	-807
▁gur	-808
▁የሆነ	-809
▁biraa	-810
▁dhii	-811
▁dura	-812
▁qill	-813
eeraa	-814
adhu	-815
iyaam	-816
▁deema	-817
▁ayyaan	-818
ሮች	-819
jjii	-820
▁fii	-821
▁dhugaa	-822
aariyaam	-823
▁dandeessu	-824
ላይ	-825
ቁዋ	-826
▁ትና	-827
▁አንዳ	-828
▁ajaa	-829
▁ከመ	-830
ኩም።	-831
▁አስተ	-832
▁er	-833
▁ልጅ	-834
▁ተስፋ	-835
▁እባክ	-836
▁kutaa	-837
▁gan	-838
በላ	-839
aay	-840
▁obb	-841
▁ይፈልጋ	-842
att	-843
▁faransaayii	-844
▁ረ	-845
chuuf	-846
ፈልግም።	-847
▁xumur	-848
▁አይነት	-849
▁ጨ	-850
▁namoonni	-851
▁maariyaam	-852
ቱዋል።	-853
▁obbol	-854
▁waanan	-855
suu	-856
▁የምት	-857
inaa	-858
▁ቦታ	-859
haan	-860
▁በማ	-861
ታል	-862
▁malee	-863
▁ባለ	-864
ወቅ	-865
baan	-866
▁kanaa	-867
▁tor	-868
▁he	-869
▁fakkaatu	-870
ina	-871
ኛው	-872
▁ቃ	-873
ቻለሁ።	-874
▁qabaa	-875
▁ህ	-876
adhe	-877
ምህርት	-878
ድን	-879
▁sal	-880
▁ሆ	-881
▁ammallee	-882
▁ሰአት	-883
siis	-884
ደው	-885
ደርግ	-886
▁አደ	-887
▁roob	-888
▁eessa	-889
ሩን	-890
▁ፈረንሳይኛ	-891
▁tokkollee	-892
▁dubbis	-893
▁barreess	-894
▁gah	-895
pp	-896
▁አልነበረ	-897
ያው	-898
▁ayyaana	-899
iy	-900
ለን	-901
▁ሌላ	-902
▁mitii	-903
."	-904
▁እየተ	-905
amm	-906
aatiin	-907
▁dhiif	-908
ሃል	-909
▁ችግር	-910
▁ትናንት	-911
▁barum	-912
▁maallaqa	-913
▁fuu	-914
ኛል	-915
▁አስባ	-916
ፍት	-917
▁ጎ	-918
▁al	-919
achuuf	-920
▁ጉዳ	-921
achuun	-922
▁qabdu	-923
ግብ	-924
ዋለሁ።	-925
▁ሥራ	-926
▁barbaadd	-927
▁yoom	-928
▁ናቸው።	-929
▁አሁንም	-930
arraa	-931
fii	-932
ubb	-933
adha	-934
ታት	-935
▁ሁል	-936
▁ሁኔ	-937
▁ትችላ	-938
ግጠ	-939
▁torb	-940
▁ኮ	-941
▁hojjet	-942
anni	-943
attu	-944
መን	-945
▁እወዳ	-946
ቀም	-947
▁ቅ	-948
▁wajj	-949
▁jirra	-950
▁በፍ	-951
▁wajjin	-952
ለጠ	-953
ወድ	-954
▁bishaan	-955
▁አልተ	-956
ኩት።	-957
ወስ	-958
▁ምክ	-959
▁አንዳንድ	-960
▁ቀን	-961
▁saree	-962
▁kam	-963
▁አለኝ።	-964
aniiru	-965
▁አይደለም	-966
▁bita	-967
aann	-968
▁hub	-969
▁kal	-970
amee	-971
or	-972
ታል።	-973
▁mar	-974
ተት	-975
▁ልጆ	-976
▁dandeenye	-977
▁waggaa	-978
st	-979
▁jijjii	-980
ሳብ	-981
ቀጥ	-982
ኑን	-983
▁ተመ	-984
▁አልቻ	-985
isa	-986
▁በላይ	-987
▁እችላለሁ	-988
ረው	-989
▁sadii	-990
▁ወይ	-991
▁አድር	-992
▁salphaa	-993
ማር	-994
▁በተ	-995
▁ተና	-996
▁jirta	-997
ጨረሻ	-998
ጠብ	-999
ርስዎ	-1000
▁fe	-1001
▁ከዚህ	-1002
▁ጣ	-1003
▁እንደማ	-1004
▁haaraa	-1005
▁nyaata	-1006
▁ዋ	-1007
▁ሄ	-1008
▁kaff	-1009
ከር	-1010
▁አብ	-1011
naa	-1012
▁dandeessaa	-1013
▁raa	-1014
▁ከባ	-1015
▁fil	-1016
ክክል	-1017
▁የለኝም።	-1018
ቀመ	-1019
oor	-1020
fe	-1021
ኖር	-1022
▁gaa	-1023
▁sag	-1024
▁homaa	-1025
▁አዲ	-1026
▁goo	-1027
▁ሁኔታ	-1028
▁kaleessa	-1029
▁harka	-1030
▁dhagah	-1031
ቹን	-1032
▁haasa	-1033
ቤት	-1034
▁መንገድ	-1035
▁ናቸው	-1036
ib	-1037
▁ti	-1038
▁በት	-1039
▁daf	-1040
ነው	-1041
ንያ	-1042
aba	-1043
▁መጥ	-1044
▁guutuu	-1045
▁dhiifama	-1046
attee	-1047
የቀ	-1048
ሄዳ	-1049
በቅ	-1050
▁ቶምን	-1051
▁murt	-1052
▁barumsaa	-1053
ስተኛ	-1054
aasa	-1055
chii	-1056
▁haww	-1057
aane	-1058
▁መጽሀፍ	-1059
▁fur	-1060
▁ራ	-1061
achaa	-1062
bbaan	-1063
▁አይደል	-1064
▁fayya	-1065
▁አለብኝ።	-1066
▁taa	-1067
▁አይመስ	-1068
▁ሙሉ	-1069
▁በሚ	-1070
▁lama	-1071
▁karaa	-1072
▁jaalladha	-1073
▁የበለጠ	-1074
▁gadi	-1075
ለህ።	-1076
▁ይመስላል።	-1077
▁ci	-1078
▁ትልቅ	-1079
▁boq	-1080
ናት	-1081
▁አስባለሁ።	-1082
ሳት	-1083
▁achi	-1084
▁qof	-1085
▁dadh	-1086
▁እንድት	-1087
▁kitaab	-1088
▁አለ።	-1089
▁ጓደኛ	-1090
eessi	-1091
ብኝ	-1092
ያቄ	-1093
ara	-1094
ድረስ	-1095
▁መቼ	-1096
nkumaa	-1097
▁qilleen	-1098
▁barbaan	-1099
▁አንተ	-1100
▁gudd	-1101
▁dadhab	-1102
ውነ	-1103
▁አባ	-1104
▁gonkumaa	-1105
kaan	-1106
▁boru	-1107
▁cu	-1108
▁torban	-1109
▁ለአ	-1110
▁dhiy	-1111
le	-1112
▁jedhee	-1113
▁አመት	-1114
▁እርግጠ	-1115
▁እመ	-1116
amb	-1117
ttaa	-1118
▁add	-1119
▁balaa	-1120
▁lamaan	-1121
▁jijjiir	-1122
nis	-1123
▁ይሆ	-1124
wwan	-1125
ሴት	-1126
diin	-1127
▁እወዳለሁ።	-1128
▁fayyad	-1129
▁አልፈልግም።	-1130
ንብ	-1131
ንግ	-1132
▁እርግጠኛ	-1133
▁kaffal	-1134
▁duu	-1135
▁ደስተኛ	-1136
▁ከባድ	-1137
eessuu	-1138
se	-1139
▁tar	-1140
▁እንደገና	-1141
▁carraa	-1142
▁ganama	-1143
sh	-1144
dheera	-1145
isaa	-1146
▁ጥያቄ	-1147
ሱን	-1148
▁መብ	-1149
▁yaadd	-1150
ከተ	-1151
ዳት	-1152
▁guut	-1153
▁hojiin	-1154
ረ።	-1155
ስታ	-1156
▁ፖ	-1157
ine	-1158
ግኘት	-1159
▁ማታ	-1160
qu	-1161
ለም	-1162
▁ቡ	-1163
▁jaa	-1164
▁meeqa	-1165
▁dheeraa	-1166
▁rakkoo	-1167
ደረግ	-1168
▁ታውቃ	-1169
▁baree	-1170
ጀመሪያ	-1171
ልክ	-1172
ነጋ	-1173
ኩት	-1174
▁ከተ	-1175
▁ነች።	-1176
▁dogoggora	-1177
atee	-1178
▁ሁሉንም	-1179
▁mag	-1180
▁barbaachisu	-1181
ቀድ	-1182
▁hamaa	-1183
▁kenni	-1184
▁dhaabb	-1185
ደርገ	-1186
▁እንግ	-1187
▁ክፍል	-1188
▁turan	-1189
▁ትምህርት	-1190
▁sab	-1191
ርስ	-1192
qii	-1193
to	-1194
faa	-1195
▁ስሜ	-1196
ilaa	-1197
eessaa	-1198
▁ammas	-1199
▁ስንት	-1200
▁አደርጋ	-1201
▁innis	-1202
▁ጀ	-1203
▁ዕ	-1204
▁gat	-1205
ስተን	-1206
amne	-1207
▁balb	-1208
ወጣ	-1209
ፈው	-1210
▁fag	-1211
▁ውሻ	-1212
isii	-1213
▁ማየት	-1214
▁kanaaf	-1215
▁hojjechuu	-1216
▁ምግብ	-1217
▁ri	-1218
eesse	-1219
▁maali	-1220
ምንት	-1221
▁እድ	-1222
ኞች	-1223
▁bah	-1224
malee	-1225
▁ለማድረግ	-1226
▁abbaan	-1227
▁dhih	-1228
▁gaaffii	-1229
▁dhukkub	-1230
▁garmalee	-1231
ጅም	-1232
▁አየ	-1233
raan	-1234
cc	-1235
fuu	-1236
▁ወን	-1237
▁ይችላሉ	-1238
ጥነት	-1239
ርያምን	-1240
▁አታ	-1241
▁dag	-1242
▁እነዚህ	-1243
▁ammaa	-1244
▁አይደለሁ	-1245
ወሰ	-1246
▁አስደ	-1247
bu	-1248
ጠይ	-1249
▁hedduu	-1250
ደረገ	-1251
▁adda	-1252
eettii	-1253
▁kophaa	-1254
▁አም	-1255
▁ulf	-1256
▁muu	-1257
▁yaade	-1258
▁jirti	-1259
ሩ።	-1260
▁qar	-1261
ሃለሁ።	-1262
▁dabal	-1263
▁im	-1264
▁ማለት	-1265
nee	-1266
▁qa	-1267
▁bara	-1268
▁namoota	-1269
▁ሁለ	-1270
▁manni	-1271
ቴን	-1272
▁1	-1273
lqu	-1274
maan	-1275
▁moo	-1276
▁kanaan	-1277
▁አስፈ	-1278
lqull	-1279
li	-1280
▁ሕ	-1281
▁ሁለት	-1282
▁ይፈልጋሉ	-1283
▁qulqull	-1284
▁taane	-1285
▁maaltu	-1286
it	-1287
▁ደረ	-1288
ንጆ	-1289
iyyuu	-1290
ateera	-1291
▁ይሰማ	-1292
▁ምክንያ	-1293
▁muraasa	-1294
▁ይቅር	-1295
ብስ	-1296
yyuu	-1297
▁ስህ	-1298
▁ልት	-1299
▁sodaa	-1300
ቱዋ	-1301
▁hark	-1302
▁nuti	-1303
ጫወት	-1304
▁በጥ	-1305
▁አዲስ	-1306
▁dhim	-1307
▁lakk	-1308
icha	-1309
▁deemuun	-1310
▁ጸ	-1311
ota	-1312
▁silaa	-1313
▁kitaaba	-1314
ቀው	-1315
▁e	-1316
▁በደ	-1317
ልፍ	-1318
▁ቆንጆ	-1319
ቂት	-1320
aam	-1321
▁goww	-1322
▁sanatti	-1323
▁liq	-1324
▁mas	-1325
▁ይወዳ	-1326
ገኛ	-1327
adheera	-1328
▁gochuun	-1329
ku	-1330
ተር	-1331
▁እሱዋ	-1332
▁የቶም	-1333
▁ይችላል	-1334
▁ትችላለህ	-1335
▁gochuuf	-1336
dhii	-1337
▁nag	-1338
▁deemuu	-1339
▁kootti	-1340
ንም።	-1341
▁እዚያ	-1342
▁እውነት	-1343
ብሰ	-1344
▁ዶ	-1345
▁ተጨ	-1346
▁ዳ	-1347
atan	-1348
▁ድረስ	-1349
▁dubbachuu	-1350
▁የለም።	-1351
gg	-1352
ሁት።	-1353
▁በቀ	-1354
መለስ	-1355
▁ያለው	-1356
chiis	-1357
▁haala	-1358
▁ገና	-1359
▁darbe	-1360
▁ይችላል።	-1361
ቱዋል	-1362
▁አይደለሁም።	-1363
ካከ	-1364
ችው።	-1365
▁qoo	-1366
▁እስካ	-1367
▁kooti	-1368
▁መግ	-1369
▁ቃል	-1370
▁gab	-1371
▁ሀሳብ	-1372
▁ከእኔ	-1373
annaa	-1374
ጣ።	-1375
▁ሁላ	-1376
▁ijooll	-1377
▁ijoollee	-1378
▁አደርጋለሁ።	-1379
ናብ	-1380
▁int	-1381
▁mud	-1382
▁ቀላል	-1383
aanaa	-1384
▁osoon	-1385
▁እንደዚህ	-1386
ፈራ	-1387
▁deemu	-1388
▁መጥፎ	-1389
▁godhu	-1390
▁akkasitti	-1391
በር	-1392
▁la	-1393
▁tokkon	-1394
▁barbaade	-1395
▁hii	-1396
▁ማወቅ	-1397
▁ማርያምን	-1398
▁aar	-1399
▁ያውቃ	-1400
ዋት	-1401
see	-1402
ሃል።	-1403
▁ከማ	-1404
▁እባክህ	-1405
ston	-1406
▁አለብኝ	-1407
▁walii	-1408
ቆም	-1409
▁የእኔ	-1410
▁ታውቃለህ	-1411
▁እስከ	-1412
▁jechuu	-1413
▁ag	-1414
▁መው	-1415
▁ool	-1416
eetii	-1417
ሻለ	-1418
▁ፊ	-1419
▁dhagahama	-1420
es	-1421
▁mil	-1422
▁qabne	-1423
▁dabars	-1424
ርሳ	-1425
ሶስት	-1426
▁ብሎ	-1427
▁አደጋ	-1428
▁ጉዳይ	-1429
▁እርስዎ	-1430
▁dhufu	-1431
ችሉ	-1432
▁ጫ	-1433
ati	-1434
toota	-1435
▁naann	-1436
▁barbaaddaa	-1437
በል	-1438
ገራ	-1439
ይወት	-1440
ያለሁ።	-1441
▁ወንድ	-1442
▁hayy	-1443
▁ትፈልጋ	-1444
▁arguu	-1445
ሎች	-1446
▁rif	-1447
ረጋ	-1448
ደብ	-1449
▁የማይ	-1450
ችንም	-1451
▁abbaa	-1452
ረት	-1453
ree	-1454
atta	-1455
▁አለብን።	-1456
▁naannoo	-1457
ፓር	-1458
▁sanaa	-1459
▁duraan	-1460
ነሳ	-1461
▁ነህ።	-1462
▁boqon	-1463
በብ	-1464
▁ሻ	-1465
tanii	-1466
▁buuf	-1467
▁ይቅርታ	-1468
▁akkasii	-1469
geeff	-1470
▁jibb	-1471
bur	-1472
zii	-1473
▁koph	-1474
▁ቤተ	-1475
▁gor	-1476
▁እስካሁን	-1477
ዘጋ	-1478
▁በእውነት	-1479
ለኛ	-1480
ootti	-1481
ameera	-1482
of	-1483
ገኝ	-1484
toonni	-1485
00	-1486
ውቅም	-1487
▁ad	-1488
ppaan	-1489
▁dhum	-1490
ተው	-1491
▁dii	-1492
▁tol	-1493
ማማ	-1494
ዛት	-1495
በት።	-1496
▁የለው	-1497
qalaa	-1498
▁baabur	-1499
▁isheenis	-1500
ሞክ	-1501
▁ru	-1502
▁ሃ	-1503
hii	-1504
▁በቂ	-1505
▁ተጠ	-1506
▁abdiin	-1507
ልህ	-1508
▁ከፍ	-1509
▁እውነ	-1510
▁አይመስለ	-1511
▁roobni	-1512
ሳች	-1513
ቀት	-1514
ጃፓ	-1515
▁ምር	-1516
ichi	-1517
▁erga	-1518
ገዛ	-1519
▁ስሜት	-1520
▁በእር	-1521
gala	-1522
▁dhiisuu	-1523
ላጆ	-1524
▁dhal	-1525
▁አለብህ።	-1526
▁dandeessa	-1527
ffaa	-1528
▁የምን	-1529
▁arge	-1530
▁hamm	-1531
▁dhaab	-1532
▁jaappaan	-1533
▁cim	-1534
▁til	-1535
▁cab	-1536
▁dhufe	-1537
ok	-1538
▁ob	-1539
▁መር	-1540
▁tilmaa	-1541
▁uffata	-1542
▁masqalaa	-1543
ላጊ	-1544
ረዶ	-1545
▁ሚ	-1546
▁አጥ	-1547
ያን	-1548
ደ።	-1549
▁ሊሆን	-1550
▁hojjechaa	-1551
ቸውን	-1552
▁pool	-1553
▁ስህተት	-1554
ነግ	-1555
▁cuf	-1556
▁deeme	-1557
ምር	-1558
▁አግ	-1559
ቀጥለው	-1560
ነጋገር	-1561
ኛለሁ።	-1562
▁ajj	-1563
dur	-1564
ናለሁ።	-1565
▁aan	-1566
▁አለህ	-1567
aataan	-1568
▁አልነበረም።	-1569
▁ሽ	-1570
▁ጠን	-1571
▁አያስ	-1572
▁ሁልጊዜ	-1573
▁hundumaa	-1574
laa	-1575
annu	-1576
▁teess	-1577
▁godh	-1578
▁ነገሮች	-1579
▁barbaanne	-1580
ህና	-1581
መር	-1582
▁ሴት	-1583
ቢያ	-1584
▁dhaq	-1585
የቅ	-1586
▁ውሃ	-1587
▁አገኘ	-1588
▁gurg	-1589
▁beekuu	-1590
▁sirriitti	-1591
kanaa	-1592
▁hime	-1593
▁hirri	-1594
▁maaloo	-1595
ዳታ	-1596
gil	-1597
ናገረ	-1598
▁በል	-1599
▁እኛ	-1600
▁ruku	-1601
▁jedhe	-1602
▁raaww	-1603
▁sagalee	-1604
▁mirkanaa	-1605
▁አይመስለኝም።	-1606
▁አስፈላጊ	-1607
▁akkuma	-1608
▁beektaa	-1609
▁jiraachuu	-1610
ዶች	-1611
▁ሳይ	-1612
arra	-1613
▁haadha	-1614
▁ደብ	-1615
ናልባት	-1616
▁haal	-1617
▁jaalladhu	-1618
▁ነኝ	-1619
taan	-1620
▁gargaarsa	-1621
ለች	-1622
▁godhe	-1623
▁ምናልባት	-1624
▁dhimma	-1625
▁balbala	-1626
ሯል።	-1627
▁በቅር	-1628
ootaa	-1629
▁eegg	-1630
▁አለው።	-1631
onni	-1632
▁umur	-1633
▁fedhii	-1634
▁og	-1635
▁እንዳል	-1636
ብህ	-1637
eesh	-1638
bbaa	-1639
▁አልቻል	-1640
▁galat	-1641
▁አስደሳች	-1642
▁muc	-1643
▁fiig	-1644
▁qabdi	-1645
የር	-1646
▁ija	-1647
▁kaas	-1648
qiiqaa	-1649
▁ትፈልጋለህ	-1650
us	-1651
ቂቃ	-1652
▁ውጭ	-1653
▁ምንድን	-1654
▁ነህ	-1655
▁ያል	-1656
▁cimaa	-1657
▁dhaggeeff	-1658
alli	-1659
▁tas	-1660
▁nuuf	-1661
▁ልጆች	-1662
chiisa	-1663
▁qabnu	-1664
▁በትክክል	-1665
▁እንደምት	-1666
▁jechuun	-1667
▁daqiiqaa	-1668
ጃፓን	-1669
ወድም።	-1670
▁inj	-1671
▁caal	-1672
▁goon	-1673
▁እንዲህ	-1674
▁garaa	-1675
▁ሰጠ	-1676
▁ነን።	-1677
ሆኑ	-1678
▁ቴ	-1679
▁ማስ	-1680
▁dafee	-1681
ረጴ	-1682
ረጴዛ	-1683
▁gatii	-1684
▁saff	-1685
bar	-1686
▁mul	-1687
▁ማግኘት	-1688
▁ሳምንት	-1689
▁jirtu	-1690
▁mirkan	-1691
ሰበ	-1692
ከት	-1693
ጠራ	-1694
▁ኩ	-1695
ችንን	-1696
aatti	-1697
▁2	-1698
▁fo	-1699
ፈልገው	-1700
ንቀ	-1701
ንቅ	-1702
ጥር	-1703
▁በሰ	-1704
▁በደንብ	-1705
ሪክ	-1706
▁እራ	-1707
▁bun	-1708
▁addun	-1709
▁kenne	-1710
om	-1711
ለፍ	-1712
መል	-1713
ሜሪ	-1714
ጎት	-1715
▁ተናግ	-1716
▁ደቂቃ	-1717
▁fiil	-1718
▁ዝናብ	-1719
▁gaariitti	-1720
ሰግ	-1721
ደም	-1722
▁ገባ	-1723
ተናል።	-1724
▁deebii	-1725
▁ijoolleen	-1726
▁ban	-1727
▁እንኳ	-1728
▁tokkotti	-1729
ጠላ	-1730
▁ችግ	-1731
▁ውድ	-1732
isuu	-1733
▁ደህና	-1734
▁maqaa	-1735
▁miira	-1736
▁በሙ	-1737
gili	-1738
▁jab	-1739
▁በፍጥነት	-1740
▁ilaalaa	-1741
መድ	-1742
▁ዋጋ	-1743
▁sareen	-1744
▁gargaaruu	-1745
ሉም	-1746
ibaa	-1747
▁min	-1748
dhaaf	-1749
▁muuz	-1750
▁boqonnaa	-1751
▁ጠዋት	-1752
▁jedhu	-1753
ምት	-1754
▁dhiq	-1755
▁ባለፈው	-1756
▁ወሰ	-1757
▁dheer	-1758
▁kophee	-1759
▁akkamii	-1760
▁jireeny	-1761
▁ሆኖ	-1762
▁ሰር	-1763
▁sad	-1764
▁barsiis	-1765
ቅድ	-1766
▁መም	-1767
▁gahaa	-1768
▁jirtaa	-1769
ጠበ	-1770
▁ልታ	-1771
▁argachuu	-1772
oos	-1773
▁ድመ	-1774
▁ተማሪ	-1775
▁የተለ	-1776
adhaa	-1777
▁መናገር	-1778
▁eegaa	-1779
▁himuu	-1780
▁ingili	-1781
▁walitti	-1782
jii	-1783
▁ሆነ	-1784
▁ala	-1785
▁አግኝ	-1786
▁biyya	-1787
xx	-1788
▁መቆ	-1789
▁በስ	-1790
▁አለው	-1791
▁hunduu	-1792
ከብ	-1793
▁ደስ	-1794
▁ገዛ	-1795
▁sirr	-1796
ሰጠ	-1797
ዳቤ	-1798
ኝነት	-1799
aman	-1800
▁ach	-1801
▁ለቶም	-1802
▁meesh	-1803
▁በሚቀጥለው	-1804
▁manaatti	-1805
ተሃል	-1806
▁gi	-1807
▁injif	-1808
▁barbaachisaa	-1809
▁xi	-1810
▁ባቡ	-1811
aatee	-1812
▁እንኳን	-1813
▁ወይም	-1814
▁ጥቂት	-1815
▁ስለዚህ	-1816
▁qofan	-1817
ቡን	-1818
ዎቹ	-1819
ሦስት	-1820
▁kom	-1821
▁ofii	-1822
▁የሚያስ	-1823
▁agars	-1824
▁hamma	-1825
▁dok	-1826
▁damb	-1827
▁ነበረብ	-1828
▁godha	-1829
▁dandeenyu	-1830
▁ጨዋ	-1831
▁ፊል	-1832
▁cir	-1833
▁mataa	-1834
▁bilbila	-1835
▁rakkoon	-1836
ወደ	-1837
ጫወ	-1838
▁መዝ	-1839
▁qaa	-1840
oomaa	-1841
▁daaww	-1842
▁ምክንያት	-1843
ካከል	-1844
▁ጀመ	-1845
isaan	-1846
ባው	-1847
▁ጭ	-1848
aana	-1849
▁din	-1850
▁የቤት	-1851
ጡ።	-1852
▁መቀ	-1853
▁አጠ	-1854
▁eenyuu	-1855
ደርገው	-1856
▁dambal	-1857
▁karoor	-1858
▁suuraa	-1859
▁guyyaan	-1860
የቀኑ	-1861
▁አበ	-1862
aalee	-1863
▁በየቀኑ	-1864
▁አላውቅም	-1865
▁dhufuu	-1866
ዱን	-1867
ግጥ	-1868
▁di	-1869
▁ስም	-1870
▁daan	-1871
▁tokkoon	-1872
ምሮ	-1873
▁መስሎ	-1874
▁argi	-1875
▁ተጨማሪ	-1876
▁nyaachuu	-1877
ሰር	-1878
▁በግ	-1879
▁kolf	-1880
▁xala	-1881
▁walga	-1882
ጉት	-1883
ልኝ።	-1884
dhan	-1885
▁ቦስተን	-1886
siisaa	-1887
▁harkif	-1888
ስክ	-1889
▁ፎ	-1890
ሞከር	-1891
▁በሙሉ	-1892
▁አባቴ	-1893
▁እባካ	-1894
eensa	-1895
▁abdii	-1896
▁ሁላችንም	-1897
▁nyaataa	-1898
▁teessoo	-1899
ሁት	-1900
ገብ	-1901
▁ፍላ	-1902
▁ለእኔ	-1903
▁kennuu	-1904
▁qoph	-1905
▁wayya	-1906
▁አልቻልኩም።	-1907
▁kamiyyuu	-1908
ከባ	-1909
▁ኖ	-1910
kil	-1911
▁ብር	-1912
▁lubb	-1913
▁በአንድ	-1914
▁qabduu	-1915
▁sababa	-1916
ንዳ	-1917
ረፍት	-1918
▁ማው	-1919
▁xuu	-1920
▁ያስባ	-1921
▁beektu	-1922
ከሰ	-1923
▁ብለው	-1924
▁ከቶም	-1925
▁ደብዳቤ	-1926
▁hiriyy	-1927
▁addunyaa	-1928
su	-1929
ጨነ	-1930
▁ከሰ	-1931
▁diimaa	-1932
▁gurgur	-1933
▁jireenya	-1934
ከፍ	-1935
▁ቡና	-1936
▁bira	-1937
▁ይሆናል	-1938
▁magaalaa	-1939
umm	-1940
ቀመጥ	-1941
ቶችን	-1942
umsa	-1943
ታለሁ።	-1944
uudha	-1945
▁barbaadde	-1946
ቦች	-1947
qis	-1948
ኛውን	-1949
▁ሰማ	-1950
▁ሶስት	-1951
▁warra	-1952
▁gammad	-1953
▁konkolaataan	-1954
30	-1955
ቆይ	-1956
ቶቡ	-1957
ችልም	-1958
▁xuux	-1959
▁ሊያ	-1960
▁እህ	-1961
ቀ።	-1962
▁ር	-1963
ald	-1964
▁መሆ	-1965
▁ፖሊ	-1966
▁ረጅም	-1967
▁አያውቅም።	-1968
▁eenyutu	-1969
▁qabaachuu	-1970
ጋሪ	-1971
▁በቅርቡ	-1972
▁dubar	-1973
▁እባካችሁ	-1974
▁waadaa	-1975
▁isiniif	-1976
▁jaallatu	-1977
▁barbaaddu	-1978
▁guutummaa	-1979
agg	-1980
ዎታል	-1981
▁dir	-1982
ሞች	-1983
ኖች	-1984
ዝቃ	-1985
ፈጠ	-1986
▁bilch	-1987
▁isaaf	-1988
▁guddaadha	-1989
tar	-1990
▁በጭ	-1991
▁ዝግ	-1992
▁እንደተ	-1993
ልኩ	-1994
urx	-1995
aara	-1996
▁ይገባ	-1997
▁ትክክል	-1998
▁fakkaat	-1999
▁ifa	-2000
▁erg	-2001
▁የተሻለ	-2002
ራው	-2003
▁ወር	-2004
▁ፈል	-2005
amaan	-2006
▁qurx	-2007
▁hojjen	-2008
ረኝ	-2009
inii	-2010
ሽት	-2011
▁dald	-2012
▁samm	-2013
▁እርዳታ	-2014
▁gabaa	-2015
▁እንዳለብኝ	-2016
daan	-2017
▁እሱን	-2018
▁kaar	-2019
ግባ	-2020
▁ሰራ	-2021
▁በዝ	-2022
▁dabalataa	-2023
▁ወድ	-2024
ልኝ	-2025
ንስ	-2026
▁gaafate	-2027
ሴን	-2028
ድነው	-2029
▁ስት	-2030
ተዋል።	-2031
▁ቀናት	-2032
▁አስቸ	-2033
▁ከተማ	-2034
▁durii	-2035
▁fakkaate	-2036
▁jaallata	-2037
ማት	-2038
ሰጥ	-2039
ira	-2040
▁ፍላጎት	-2041
▁hiriyyoota	-2042
▁guutummaatti	-2043
ፈለግ	-2044
▁ወላጆ	-2045
▁muraas	-2046
▁እመኛለሁ።	-2047
▁buufata	-2048
▁ዕድ	-2049
ቃት	-2050
ይወ	-2051
▁ተመል	-2052
▁fudhachuu	-2053
ሰድ	-2054
▁ja	-2055
▁baaf	-2056
▁kennaa	-2057
▁sirb	-2058
▁መጠበቅ	-2059
▁አይችሉ	-2060
▁nyaan	-2061
▁hojjetu	-2062
▁qilleensaa	-2063
▁እንችላ	-2064
▁tarii	-2065
▁sammuu	-2066
ታም	-2067
qaan	-2068
ummii	-2069
▁እንዲያ	-2070
▁jaallat	-2071
ንቃ	-2072
ለውን	-2073
▁ዘግ	-2074
▁እንቅ	-2075
▁ጠየቀ	-2076
▁faay	-2077
▁dhukkubs	-2078
ቀር	-2079
▁v	-2080
uum	-2081
▁ተሳ	-2082
iyyaa	-2083
▁fuul	-2084
▁oolu	-2085
▁መብላት	-2086
▁foddaa	-2087
▁guddaan	-2088
▁ቅር	-2089
▁irb	-2090
eerra	-2091
▁dhok	-2092
▁haati	-2093
▁bareedduu	-2094
ሉን	-2095
▁T	-2096
ቢያው	-2097
ሮችን	-2098
▁kudhan	-2099
▁galgala	-2100
▁ሱ	-2101
▁tu	-2102
▁seenaa	-2103
ሌት	-2104
▁qal	-2105
▁uum	-2106
ፉን	-2107
▁አዝ	-2108
▁አሉ።	-2109
▁deebis	-2110
ርጣ	-2111
▁anis	-2112
▁jibba	-2113
▁አልወድም።	-2114
በቃ	-2115
▁ch	-2116
tiif	-2117
maata	-2118
▁buna	-2119
▁ciis	-2120
▁አመታት	-2121
▁nyaat	-2122
▁biskil	-2123
▁jalqabe	-2124
▁bitachuu	-2125
▁ጽ	-2126
ሁም።	-2127
▁መዋ	-2128
▁hor	-2129
▁amana	-2130
▁yaalaa	-2131
ተና	-2132
▁ሀብ	-2133
▁መታ	-2134
▁miidh	-2135
▁warri	-2136
▁irbaata	-2137
▁dambalii	-2138
በዝ	-2139
▁ብዙም	-2140
▁የለውም።	-2141
▁yaaddu	-2142
▁fuuldur	-2143
▁gammachuu	-2144
ሆና	-2145
▁በራ	-2146
▁በየ	-2147
oodha	-2148
umaan	-2149
▁መስሎኝ	-2150
▁keeny	-2151
▁እንደሚያ	-2152
▁kunuun	-2153
መም	-2154
ቱም	-2155
ከረ	-2156
▁ሙዚ	-2157
▁saan	-2158
▁waajj	-2159
▁tokkoof	-2160
▁agarsiis	-2161
ርሱ	-2162
tir	-2163
ነበር	-2164
rsaa	-2165
ምንም።	-2166
▁ibi	-2167
▁እንግዳ	-2168
▁fiilmii	-2169
▁ፕ	-2170
ወደው	-2171
▁ብዙውን	-2172
▁እየሰራ	-2173
▁qillee	-2174
ነፍ	-2175
ኛውም	-2176
▁aw	-2177
▁ur	-2178
▁የኔ	-2179
▁ግድ	-2180
▁haas	-2181
▁qaban	-2182
▁ajjees	-2183
▁dhumaa	-2184
▁ammaatti	-2185
▁dhiyootti	-2186
▁አር	-2187
▁abj	-2188
▁qabdaa	-2189
bii	-2190
ለም።	-2191
ላችሁ	-2192
▁od	-2193
▁ንግ	-2194
▁ተመለ	-2195
iyaan	-2196
▁በእርግጥ	-2197
▁qoosaa	-2198
▁walakk	-2199
ራሽ	-2200
ውቀው	-2201
alle	-2202
eeri	-2203
gagg	-2204
▁ቀደም	-2205
▁ታሪክ	-2206
▁ዘግይ	-2207
▁nagaa	-2208
▁hiriyyaa	-2209
▁obboleessa	-2210
ረጥ	-2211
ሳሳይ	-2212
▁በሩን	-2213
▁የገና	-2214
▁jech	-2215
▁እንግሊ	-2216
▁dabar	-2217
▁dargagg	-2218
▁umuriin	-2219
▁xalayaa	-2220
aati	-2221
▁bit	-2222
▁አስቤ	-2223
ነቱ	-2224
ጹም	-2225
ፋት	-2226
unn	-2227
ዝቃዛ	-2228
dduun	-2229
▁ameeri	-2230
▁muuziq	-2231
▁barbaadda	-2232
▁eeggannoo	-2233
▁ይጠ	-2234
dhee	-2235
▁laa	-2236
oonii	-2237
▁መምጣት	-2238
▁አስቀድ	-2239
▁jiran	-2240
▁filannoo	-2241
▁saffisaan	-2242
ሸን	-2243
▁ሸ	-2244
siif	-2245
▁muka	-2246
▁መግዛት	-2247
▁dandeenya	-2248
ቀረ	-2249
ጦታ	-2250
ልም።	-2251
▁አካ	-2252
▁sod	-2253
▁አላስ	-2254
▁goote	-2255
▁amanuu	-2256
▁hammam	-2257
▁maatii	-2258
▁toomiin	-2259
▁barsiisaa	-2260
ኖራ	-2261
ጻፍ	-2262
▁ምስ	-2263
▁ስላ	-2264
tobu	-2265
udha	-2266
▁ነገረ	-2267
▁siree	-2268
▁አለበት።	-2269
▁እባክዎን	-2270
tobusii	-2271
ክት	-2272
▁ዝም	-2273
▁dinqis	-2274
▁hojjedhu	-2275
▁ቤቱ	-2276
oora	-2277
▁አለብዎት	-2278
▁arguun	-2279
ሉት	-2280
ሳተ	-2281
▁tv	-2282
▁ሰም	-2283
▁biq	-2284
▁መጫወት	-2285
▁hojjeta	-2286
▁otobusii	-2287
▁taphachuu	-2288
▁ዝግጁ	-2289
▁bareedaa	-2290
ክፍ	-2291
dee	-2292
ወስዳ	-2293
amboo	-2294
▁hafe	-2295
▁shan	-2296
▁shakk	-2297
▁hirriba	-2298
▁jaallattu	-2299
▁qurxummii	-2300
ቼን	-2301
ከው	-2302
▁ወረ	-2303
▁ድም	-2304
▁ጉዞ	-2305
ቁዋል።	-2306
▁በዚያ	-2307
▁jecha	-2308
▁ይሆናል።	-2309
▁konkolaa	-2310
▁gaafachuu	-2311
ልጽ	-2312
lli	-2313
▁ለብ	-2314
▁hiik	-2315
▁lafa	-2316
▁minj	-2317
▁qophaa	-2318
▁tamboo	-2319
▁እችላለሁ።	-2320
▁argadhe	-2321
▁jalqaba	-2322
▁lakkoof	-2323
▁galatoomaa	-2324
ሞት	-2325
ሰ።	-2326
ኝም	-2327
▁ማጥ	-2328
▁ተወ	-2329
▁ደክ	-2330
▁ጫማ	-2331
▁ጸጉ	-2332
ፈልግም	-2333
isiin	-2334
▁አለብን	-2335
▁እንድታ	-2336
▁በመጨረሻ	-2337
▁እንፈልጋ	-2338
▁hedduun	-2339
ላሉ	-2340
ቅም	-2341
ጠር	-2342
ዎት።	-2343
▁aja	-2344
▁ለዚህ	-2345
▁መኖር	-2346
▁dull	-2347
ልድ	-2348
ብን	-2349
▁ajaj	-2350
▁hord	-2351
▁biqil	-2352
▁እንደሆን	-2353
▁argine	-2354
▁ilaaluu	-2355
▁barachuu	-2356
▁dhugaatii	-2357
ስራ	-2358
ደሰ	-2359
▁ቲ	-2360
▁መሰ	-2361
anna	-2362
▁ስጦታ	-2363
▁ፈልጌ	-2364
arratti	-2365
ጦር	-2366
▁ዜ	-2367
▁ልብ	-2368
▁ትኩ	-2369
iina	-2370
▁ቁዋን	-2371
▁baan	-2372
▁dhuma	-2373
▁jettanii	-2374
ግርህ	-2375
▁su	-2376
▁sim	-2377
▁የእሱ	-2378
dheen	-2379
▁galm	-2380
▁laaq	-2381
▁deemaa	-2382
▁አላምንም።	-2383
▁የመጀመሪያ	-2384
ሁድ	-2385
ኬት	-2386
▁የወ	-2387
▁wagg	-2388
▁ቀዝቃዛ	-2389
▁booston	-2390
ለ።	-2391
ሰው	-2392
ያዝ	-2393
ይት	-2394
ጠኝ	-2395
▁አቁ	-2396
▁ምሽት	-2397
▁ቁጥር	-2398
▁paar	-2399
▁ማውራት	-2400
▁galle	-2401
▁በባ	-2402
▁እድል	-2403
▁edaa	-2404
▁tapha	-2405
▁yaadu	-2406
▁ከእርስዎ	-2407
amaadha	-2408
ጨስ	-2409
ታችን	-2410
ቦስተን	-2411
▁ንገረ	-2412
▁baas	-2413
▁naan	-2414
▁oduu	-2415
▁argam	-2416
▁dhiph	-2417
▁haasof	-2418
ለመ	-2419
ምፒ	-2420
ገም	-2421
▁ኢ	-2422
dan	-2423
▁ሰላ	-2424
▁ሰአ	-2425
▁ስር	-2426
▁የራ	-2427
▁እቅድ	-2428
▁ይሰራ	-2429
attii	-2430
▁የእርስዎ	-2431
▁haalli	-2432
▁milkaa	-2433
▁yaadda	-2434
▁akkaataa	-2435
▁dinqisiif	-2436
ህር	-2437
ገሩ	-2438
ፓርቲ	-2439
▁የው	-2440
▁ደግ	-2441
itii	-2442
iniin	-2443
▁Toom	-2444
▁hall	-2445
▁dhabe	-2446
▁sadar	-2447
▁አስቸጋሪ	-2448
▁intala	-2449
▁ተናግሯል።	-2450
▁achitti	-2451
▁ameerikaa	-2452
▁muraasaaf	-2453
ሂድ	-2454
▁A	-2455
▁፣	-2456
▁መደ	-2457
▁dool	-2458
▁የአየር	-2459
ረጃ	-2460
kee	-2461
መስላ	-2462
▁በበ	-2463
▁ድን	-2464
▁ፈቃ	-2465
▁እናቴ	-2466
▁kaba	-2467
▁qars	-2468
▁qori	-2469
▁ካል	-2470
▁ወዲ	-2471
▁ይሻ	-2472
▁አንዱ	-2473
▁soch	-2474
▁rifeensa	-2475
▁biskileetii	-2476
ሰል	-2477
ጠና	-2478
▁ወስ	-2479
▁ፎቶ	-2480
laan	-2481
ረጴዛው	-2482
▁በጭራሽ	-2483
▁kitaabni	-2484
▁ulfaataa	-2485
ክክ	-2486
ዱ።	-2487
waa	-2488
ሜሪካ	-2489
▁foo	-2490
▁way	-2491
▁እሄዳ	-2492
▁hidh	-2493
▁ወደዚያ	-2494
▁ተመሳሳይ	-2495
eettiin	-2496
ታዊ	-2497
tin	-2498
▁ስብሰ	-2499
▁በረዶ	-2500
▁ደረጃ	-2501
▁call	-2502
▁qarq	-2503
▁reef	-2504
▁goone	-2505
ጠ።	-2506
xaa	-2507
▁ለው	-2508
▁ይቻ	-2509
ሉዋል።	-2510
▁waar	-2511
aaraan	-2512
yyeeff	-2513
▁kabaj	-2514
▁gidduu	-2515
▁karoora	-2516
ካራ	-2517
ግራ	-2518
ወሰነ	-2519
ጠይቅ	-2520
▁mo	-2521
▁ለሁ	-2522
▁ልን	-2523
▁አድ	-2524
▁ኩባ	-2525
▁ዶክ	-2526
utti	-2527
▁አልቻለም።	-2528
▁karoorf	-2529
▁xiyyeeff	-2530
ፕላ	-2531
▁ፒ	-2532
ሉም።	-2533
ሥራት	-2534
ነገር	-2535
▁mall	-2536
▁መካከል	-2537
▁shubb	-2538
▁tasaa	-2539
▁furtuu	-2540
▁gaafat	-2541
▁jettee	-2542
▁xiqqaa	-2543
▁dubbata	-2544
▁galaanaa	-2545
▁konkolaachis	-2546
ርዝ	-2547
ፈን	-2548
▁gadh	-2549
▁kaan	-2550
▁አልገባ	-2551
▁boston	-2552
▁deemne	-2553
▁gammachiisa	-2554
ሰብኩ	-2555
▁ተከ	-2556
saan	-2557
▁raf	-2558
▁ቦርሳ	-2559
▁እሁድ	-2560
▁dukk	-2561
▁ትመስላ	-2562
▁gorsa	-2563
▁ቁዋንቁዋ	-2564
▁kutaan	-2565
▁ማሳ	-2566
▁ምሳ	-2567
▁መማር	-2568
yyoota	-2569
▁baratt	-2570
▁kaffaltii	-2571
▁obboleettii	-2572
▁በወ	-2573
▁dhan	-2574
▁qunn	-2575
▁geess	-2576
▁mudate	-2577
▁ነበረብኝ።	-2578
▁namatti	-2579
ርባ	-2580
▁በፈ	-2581
▁ተቀ	-2582
▁soo	-2583
▁fudhate	-2584
▁sadarkaa	-2585
ሚያ	-2586
▁ብት	-2587
▁ፊት	-2588
▁fal	-2589
▁hat	-2590
▁icc	-2591
▁oof	-2592
▁gadd	-2593
▁ከሰአት	-2594
▁ነበርኩ።	-2595
▁qaamaa	-2596
▁lubbuun	-2597
ተኛት	-2598
ጣሁ።	-2599
▁jala	-2600
▁meeq	-2601
▁መቆየት	-2602
▁eeguu	-2603
▁miila	-2604
ሌም	-2605
ሳል	-2606
ባቢ	-2607
ጎዳ	-2608
ወስድ	-2609
▁መለ	-2610
▁በህ	-2611
▁mor	-2612
▁alaa	-2613
▁ለአንድ	-2614
▁ነበሩ።	-2615
▁አለበት	-2616
▁አመሰግ	-2617
▁nutti	-2618
▁jalqabaa	-2619
ብር	-2620
ኖረው	-2621
▁ታስ	-2622
▁ደክሞ	-2623
▁ጎበዝ	-2624
eedha	-2625
▁komp	-2626
▁xiyy	-2627
▁jettu	-2628
▁ለማርያም	-2629
▁isinitti	-2630
▁walakkaa	-2631
ሙን	-2632
ቀስ	-2633
ቻል	-2634
ነስ	-2635
ጠጣ	-2636
qni	-2637
ያየት	-2638
ፈልጉ	-2639
▁ቀድ	-2640
▁lag	-2641
ataan	-2642
▁ያስባሉ	-2643
▁deemnu	-2644
▁fayyaa	-2645
▁waaree	-2646
▁kootiif	-2647
▁qarshii	-2648
ሳኔ	-2649
▁ቀይ	-2650
▁ሁሌም	-2651
▁የለብ	-2652
ummaan	-2653
teettaa	-2654
▁gaariin	-2655
▁mallatt	-2656
▁isaatiin	-2657
▁murteess	-2658
▁caalaatti	-2659
ሶች	-2660
ደት	-2661
ጠፋ	-2662
▁fuf	-2663
▁isn	-2664
▁ቀኑን	-2665
▁አውቶቡ	-2666
ለድ	-2667
ምራ	-2668
amii	-2669
▁jalaa	-2670
▁አይችሉም።	-2671
▁ogeessa	-2672
▁qormaata	-2673
▁እንፈልጋለን።	-2674
▁qilleensi	-2675
ገበ	-2676
roo	-2677
▁በም	-2678
▁ትር	-2679
▁ይና	-2680
▁haf	-2681
▁ብስክ	-2682
irraa	-2683
siisa	-2684
▁ከአሁን	-2685
▁fuula	-2686
▁baasuu	-2687
▁jiraata	-2688
▁kitaabota	-2689
▁gammadeera	-2690
▁ኳ	-2691
▁ልክ	-2692
▁bur	-2693
▁መንገ	-2694
▁hogg	-2695
▁ብቻዬን	-2696
▁addaan	-2697
▁qarqara	-2698
▁tilmaam	-2699
▁xiqqaadha	-2700
mi	-2701
ጋው	-2702
▁ሮ	-2703
ung	-2704
▁አጋ	-2705
▁sob	-2706
▁እጠላ	-2707
▁hang	-2708
▁ማንበብ	-2709
▁balal	-2710
▁illee	-2711
▁dhiisaa	-2712
▁minjaala	-2713
መው	-2714
ይታ	-2715
ፈት	-2716
boo	-2717
ላቸው	-2718
ተዋል	-2719
▁በር	-2720
▁በአው	-2721
▁አሳል	-2722
▁hojjenne	-2723
ሱዋ	-2724
ቀቅ	-2725
quu	-2726
uba	-2727
▁ተራ	-2728
ddoo	-2729
▁jette	-2730
▁እውነቱን	-2731
▁የመጨረሻ	-2732
▁eessaa	-2733
▁halluu	-2734
▁barreeff	-2735
▁eenyuutu	-2736
ሊት	-2737
ርድ	-2738
ሮፕላ	-2739
▁ተቃ	-2740
amni	-2741
▁ጓደኞች	-2742
▁turuu	-2743
▁ይመስላል	-2744
▁kootii	-2745
▁arganne	-2746
▁waajjira	-2747
ራጭ	-2748
ካም	-2749
yoo	-2750
▁ዳር	-2751
batti	-2752
▁መዋኘት	-2753
▁ለማግኘት	-2754
▁baabura	-2755
ሬን	-2756
ታማ	-2757
ፏል።	-2758
▁መፍ	-2759
▁ሰኞ	-2760
▁በሁ	-2761
▁የል	-2762
▁ጨዋታ	-2763
▁ለማየት	-2764
▁dhufa	-2765
▁hafuu	-2766
▁beekta	-2767
▁mucaan	-2768
▁ይሰማኛል።	-2769
ላር	-2770
▁ልዩ	-2771
▁መክ	-2772
▁አፍ	-2773
llaa	-2774
▁iyyuu	-2775
ሄደ	-2776
ኒስ	-2777
ፈር	-2778
▁ቶ	-2779
ነዚህ	-2780
▁aff	-2781
▁bii	-2782
▁kir	-2783
▁hima	-2784
▁እንዳት	-2785
▁laaqana	-2786
▁yoomiyyuu	-2787
lu	-2788
ላች	-2789
ችው	-2790
ስትራ	-2791
▁ቀጠ	-2792
▁አዳ	-2793
taaf	-2794
▁gam	-2795
▁ውሳኔ	-2796
▁ፈተና	-2797
▁መሆኑን	-2798
▁sabab	-2799
▁በቦስተን	-2800
▁ያስፈልገ	-2801
▁dheeraaf	-2802
▁dhukkubb	-2803
▁muuziqaa	-2804
ቤተ	-2805
ዋቂ	-2806
ዳው	-2807
▁መሳ	-2808
▁በው	-2809
▁ይሄዳ	-2810
▁ፖሊስ	-2811
▁አደረግ	-2812
▁damma	-2813
▁duubatti	-2814
መ።	-2815
ገጥ	-2816
ፁም	-2817
ጠበቅ	-2818
▁መነ	-2819
▁kuf	-2820
▁ለገና	-2821
▁ልብስ	-2822
▁መልስ	-2823
▁ካንተ	-2824
▁የምፈልገ	-2825
▁gowwaa	-2826
▁tokkoo	-2827
▁jaalallee	-2828
▁dhumarratti	-2829
ለማ	-2830
ሊያ	-2831
ፎች	-2832
ረጅም	-2833
ችኝ።	-2834
aash	-2835
▁lol	-2836
▁ማስተ	-2837
▁ተሰማ	-2838
▁ትክክ	-2839
▁himaa	-2840
▁affeer	-2841
▁maqaan	-2842
▁qorraa	-2843
▁yaadni	-2844
▁deemuuf	-2845
ረድ	-2846
ዝኛ	-2847
ደኛ	-2848
lee	-2849
ችለው	-2850
▁ሳጥ	-2851
▁kon	-2852
▁ለመስ	-2853
▁taas	-2854
▁teen	-2855
▁መውጣት	-2856
▁እንቅልፍ	-2857
eessuun	-2858
▁kubbaa	-2859
▁magaal	-2860
▁rakkis	-2861
▁አይችልም።	-2862
arr	-2863
eeq	-2864
ረዳት	-2865
▁sham	-2866
▁bakki	-2867
▁qorra	-2868
▁አስተማሪ	-2869
ሌቪ	-2870
ረፍ	-2871
ቤቴ	-2872
ሌቪዥ	-2873
▁ልጁ	-2874
▁ተኝ	-2875
▁የታ	-2876
▁የመጣ	-2877
▁ፊልም	-2878
▁yakk	-2879
▁እንደማይ	-2880
▁walgahii	-2881
ስብ	-2882
ቃሚ	-2883
ገት	-2884
ችም።	-2885
▁ሲያ	-2886
▁እግ	-2887
▁ከወ	-2888
▁ደን	-2889
inuu	-2890
neen	-2891
▁ለማን	-2892
▁ወድጄ	-2893
▁gala	-2894
▁ወዲያው	-2895
▁banaa	-2896
▁fayyadam	-2897
ስፒ	-2898
ታውስ	-2899
ጀመር	-2900
▁ቁል	-2901
▁ወቅ	-2902
site	-2903
suuf	-2904
▁hum	-2905
▁አለባ	-2906
eenye	-2907
▁abaa	-2908
▁amanu	-2909
▁gabaabaa	-2910
▁መጣ	-2911
▁መስኮ	-2912
▁አለመ	-2913
▁barn	-2914
▁ilma	-2915
▁ariif	-2916
▁ከማርያም	-2917
▁arguuf	-2918
▁kanuma	-2919
▁hundinuu	-2920
መረ	-2921
iba	-2922
ሸነፍ	-2923
ቱዋን	-2924
▁መምህ	-2925
▁mucaa	-2926
▁hojjechuuf	-2927
▁salphaadha	-2928
ቂያ	-2929
ንዱ	-2930
ዘኛ	-2931
ያኖ	-2932
too	-2933
▁ana	-2934
▁himi	-2935
▁bahuu	-2936
▁dhung	-2937
▁namaa	-2938
▁seera	-2939
▁suuta	-2940
▁beekne	-2941
የው	-2942
ስማማ	-2943
▁ግራ	-2944
▁ቀለም	-2945
adheen	-2946
▁jiruu	-2947
▁shaay	-2948
▁መጀመሪያ	-2949
▁dubbatu	-2950
▁jiraatu	-2951
▁barbaadaa	-2952
sp	-2953
ጠን	-2954
ፍራ	-2955
▁ፈለ	-2956
tora	-2957
▁ምርጫ	-2958
ስትራሊያ	-2959
▁ያለውን	-2960
▁tilmaama	-2961
ሳካ	-2962
ክሲ	-2963
ይል	-2964
▁ኃ	-2965
▁ይቆ	-2966
▁ይመጣ	-2967
▁ዶላር	-2968
▁ጠቃሚ	-2969
▁imala	-2970
▁isniina	-2971
▁barbaadduu	-2972
▁mirkaneeff	-2973
ሸት	-2974
ጠት	-2975
ፈቀ	-2976
▁M	-2977
ፖርት	-2978
▁if	-2979
▁ለመግ	-2980
▁harm	-2981
▁እነዚህን	-2982
▁fooyya	-2983
▁qalama	-2984
▁argatte	-2985
ጠብቅ	-2986
ፈለገ	-2987
▁ዜና	-2988
▁mij	-2989
▁ሄደ።	-2990
▁lamma	-2991
▁ነገሮችን	-2992
aaliyaa	-2993
▁dubbisuu	-2994
በው	-2995
ise	-2996
ቁዋቁዋ	-2997
▁bin	-2998
▁እመርጣ	-2999
sar	-3000
▁በሳ	-3001
▁አገ	-3002
▁ሙዚቃ	-3003
▁dhaam	-3004
▁ይወዳል።	-3005
▁አንችልም።	-3006
▁abaaboo	-3007
▁daandii	-3008
▁meeshaa	-3009
▁wayinii	-3010
▁guyyoota	-3011
▁wantoota	-3012
▁gammachiis	-3013
ክስ	-3014
▁ኬ	-3015
▁ትላ	-3016
▁ኖሮ	-3017
ራለሁ።	-3018
▁buu	-3019
▁pir	-3020
▁saa	-3021
▁በእኔ	-3022
▁ወቅት	-3023
ustir	-3024
▁እንደዛ	-3025
▁ጠንካራ	-3026
▁ጣቢያው	-3027
▁rakkisaadha	-3028
ወዱ	-3029
▁ሴ	-3030
▁ፓ	-3031
gab	-3032
ድርጉ	-3033
▁ቢራ	-3034
▁ወጥ	-3035
▁ውጤ	-3036
▁መተኛት	-3037
▁ከአንድ	-3038
▁የተለየ	-3039
▁caalu	-3040
▁hundaa	-3041
▁እንችላለን	-3042
▁iccitii	-3043
ለኝ	-3044
▁ደደብ	-3045
▁ግልጽ	-3046
shann	-3047
▁መመለስ	-3048
▁እነዚያ	-3049
▁anaaf	-3050
▁kenna	-3051
▁እንደዚያ	-3052
amummaa	-3053
▁tasgab	-3054
▁awustir	-3055
▁boorsaa	-3056
▁fudhata	-3057
▁kitaabaa	-3058
ck	-3059
ብራ	-3060
▁ጃ	-3061
ስፒታል	-3062
▁ስልክ	-3063
▁እራት	-3064
▁dall	-3065
▁በእውነ	-3066
▁ጓደኛዬ	-3067
▁bashann	-3068
▁hundaaf	-3069
▁kootiin	-3070
▁bilbilaa	-3071
▁fakkaatta	-3072
▁dubbateera	-3073
ሀይ	-3074
ስር	-3075
ጋት	-3076
ዷል።	-3077
▁መድ	-3078
▁ነፃ	-3079
▁በመስ	-3080
▁የለም	-3081
▁dirq	-3082
▁wara	-3083
▁ሁለቱም	-3084
▁narra	-3085
▁ይችላሉ።	-3086
▁doonii	-3087
▁sanaaf	-3088
▁አትችልም።	-3089
▁ወድጄዋለሁ።	-3090
▁dhaloota	-3091
ዲህ	-3092
▁።	-3093
▁ረሳ	-3094
jiin	-3095
yaan	-3096
▁አደረገ	-3097
▁ciree	-3098
▁gootu	-3099
▁iddoo	-3100
▁socho	-3101
▁lakkaa	-3102
▁jireenyi	-3103
▁fayyadamuu	-3104
ምና	-3105
ሩት	-3106
ተህ	-3107
ጨረስ	-3108
▁ሄድ	-3109
▁ወጣት	-3110
▁ይኖራ	-3111
▁aann	-3112
▁ሀብታም	-3113
▁መውሰድ	-3114
▁ijaar	-3115
▁ያውቃል።	-3116
▁ይሰማኛል	-3117
▁dhabuu	-3118
▁gurraa	-3119
▁doolaara	-3120
▁maallaqni	-3121
▁barreessuu	-3122
▁awustiraaliyaa	-3123
ደል	-3124
ጣን	-3125
▁ሹ	-3126
▁ኪ	-3127
gar	-3128
▁ተጫ	-3129
▁መጠን	-3130
▁ጀምሮ	-3131
▁jeeq	-3132
▁amala	-3133
▁hotee	-3134
▁aannan	-3135
▁ilkaan	-3136
▁mitiiree	-3137
▁argachuuf	-3138
ek	-3139
ረብ	-3140
ወራ	-3141
ዳሜ	-3142
ዘጋጀ	-3143
▁በጉ	-3144
▁ያሳ	-3145
eens	-3146
▁መቼም	-3147
▁ማቆም	-3148
▁ጠንክ	-3149
▁argu	-3150
▁መሥራት	-3151
▁ነዎት።	-3152
▁አሉኝ።	-3153
▁አደገኛ	-3154
▁እንዳይ	-3155
▁ያደርጋ	-3156
▁jedha	-3157
▁sagal	-3158
▁deemte	-3159
▁yaadaa	-3160
▁keessaniif	-3161
ለል	-3162
ቱ።	-3163
ኮትን	-3164
ጠብቃ	-3165
▁um	-3166
▁ሀኪ	-3167
▁በሩ	-3168
▁ፕሮ	-3169
atin	-3170
▁ከእኛ	-3171
▁gosa	-3172
▁mala	-3173
▁መስማት	-3174
▁deemtu	-3175
▁galmee	-3176
▁dulloom	-3177
▁lammaffaa	-3178
▁poolisiin	-3179
gal	-3180
ሰራው	-3181
▁በላ	-3182
ናገረው	-3183
▁ለመር	-3184
uuraa	-3185
▁foon	-3186
▁ቴሌቪዥ	-3187
▁አለን።	-3188
▁ከእንግ	-3189
▁ወንድሜ	-3190
▁garee	-3191
▁በእውነቱ	-3192
▁እባኮትን	-3193
▁ilaala	-3194
▁beekamaadha	-3195
መት	-3196
ሬት	-3197
▁አማ	-3198
▁ከሁ	-3199
▁የባ	-3200
ksii	-3201
▁ትወዳ	-3202
sitee	-3203
▁መስራት	-3204
▁ከፍተኛ	-3205
▁kudha	-3206
▁taate	-3207
▁biiraa	-3208
▁keetii	-3209
▁murtoo	-3210
▁jireenyaa	-3211
ኞቹ	-3212
ዝና	-3213
ጓዝ	-3214
ደውል	-3215
▁ሻይ	-3216
▁በሌ	-3217
▁ጦር	-3218
miin	-3219
▁wii	-3220
▁ምክር	-3221
▁ቃላት	-3222
▁እኔን	-3223
▁እረፍት	-3224
▁beeks	-3225
▁cirra	-3226
▁faayi	-3227
▁isheef	-3228
▁ይፈልጋል።	-3229
▁harmeen	-3230
▁toomiif	-3231
ቁር	-3232
ከራ	-3233
ዘግ	-3234
ጣሚ	-3235
ቀመጫ	-3236
ዙሪያ	-3237
▁ተን	-3238
▁ጨር	-3239
▁ፈጽ	-3240
▁እንስ	-3241
▁የተሳ	-3242
▁seer	-3243
▁dammaq	-3244
▁dhageess	-3245
▁gargaaruuf	-3246
በስ	-3247
ቡ።	-3248
ኩል	-3249
ደድ	-3250
ዲዮ	-3251
ጨነቅ	-3252
▁ህል	-3253
▁ተኛ	-3254
▁አሣ	-3255
▁የምታ	-3256
▁በአለም	-3257
▁አካባቢ	-3258
▁ፍጥነት	-3259
kn	-3260
ከን	-3261
▁K	-3262
ምፒው	-3263
ችሁም	-3264
▁እጅ	-3265
▁ዋና	-3266
▁ያዘ	-3267
▁ማመን	-3268
▁ቅዳሜ	-3269
▁boon	-3270
▁gaaz	-3271
▁sodd	-3272
▁የለውም	-3273
▁ይወዳሉ	-3274
▁humna	-3275
▁urgaa	-3276
eessuuf	-3277
▁doktora	-3278
▁biqiltuu	-3279
▁qulqulluu	-3280
ህም	-3281
ራዊ	-3282
ing	-3283
jaa	-3284
ደርስ	-3285
ጠቀም	-3286
▁ቢሮ	-3287
▁ኳስ	-3288
essa	-3289
▁ራሴን	-3290
▁እርስ	-3291
siisuu	-3292
▁ለመርዳት	-3293
▁hayyam	-3294
▁kompii	-3295
▁የምፈልገው	-3296
▁ofirraa	-3297
▁dhukkuba	-3298
▁ingilizii	-3299
▁salphaatti	-3300
ቂኝ	-3301
አቱ	-3302
ያዊ	-3303
ጉም	-3304
▁ሂ	-3305
▁አና	-3306
▁ድር	-3307
▁kof	-3308
▁ብለህ	-3309
▁በመኪና	-3310
▁ታደርጋ	-3311
▁ይቻላል	-3312
▁ጀመረ።	-3313
▁qoricha	-3314
ግ።	-3315
ጭር	-3316
bba	-3317
ima	-3318
መለከ	-3319
ደሰት	-3320
ድስት	-3321
ጠየቅ	-3322
▁አቅ	-3323
inni	-3324
▁aww	-3325
▁ወይን	-3326
▁ፈጽሞ	-3327
▁ፓርቲ	-3328
▁ወደዚህ	-3329
▁ፈቃደኛ	-3330
▁sirba	-3331
▁shaayii	-3332
▁faayidaa	-3333
▁gargaaru	-3334
ሥራ	-3335
jee	-3336
መሰግ	-3337
በትን	-3338
▁ተለ	-3339
▁ክብ	-3340
ሱዋል።	-3341
ሳለሁ።	-3342
▁ማጨስ	-3343
▁mari	-3344
▁ማንንም	-3345
▁jiraat	-3346
▁tureef	-3347
▁ለምንድነው	-3348
▁አስተያየት	-3349
ሽን	-3350
ታች	-3351
moo	-3352
ኩኝ።	-3353
ውም።	-3354
▁በረ	-3355
▁ኬክ	-3356
spit	-3357
ttuu	-3358
xata	-3359
አለሁ።	-3360
▁በዝቶ	-3361
▁እገም	-3362
▁መጨረሻ	-3363
▁አየሁ።	-3364
▁beela	-3365
▁dhibu	-3366
▁dhuun	-3367
▁hospit	-3368
▁hojjete	-3369
▁obboleessi	-3370
ሻሻ	-3371
ቁ።	-3372
ወር	-3373
ጻሕ	-3374
ጣል።	-3375
▁የጥ	-3376
ታለች።	-3377
▁jen	-3378
▁ባቡሩ	-3379
▁ታዋቂ	-3380
▁ቴኒስ	-3381
▁ወጣ።	-3382
tarri	-3383
ልሃለሁ።	-3384
▁qabb	-3385
▁siin	-3386
▁አጠገብ	-3387
atinaa	-3388
▁garag	-3389
▁hiriy	-3390
▁rukut	-3391
▁gurbaa	-3392
▁jaalala	-3393
▁taphachaa	-3394
ወል	-3395
ትክል	-3396
ደርጉ	-3397
▁ካር	-3398
▁ይለ	-3399
▁ጠብ	-3400
ilee	-3401
▁ከዚያ	-3402
▁ጊዜው	-3403
▁ሕይወት	-3404
▁abjuu	-3405
▁yaale	-3406
▁ከእንግዲህ	-3407
▁gadhiis	-3408
▁hafuura	-3409
▁tasumaa	-3410
▁አልገባኝም።	-3411
▁hojjedha	-3412
▁bitachuuf	-3413
ኩህ	-3414
ዘን	-3415
ከተማ	-3416
▁ወጣ	-3417
▁ያሉ	-3418
▁ማነው	-3419
▁ቀድሞ	-3420
▁ዳርቻ	-3421
▁ጃፓን	-3422
▁ጉዳዩ	-3423
aamur	-3424
▁qaxx	-3425
▁kofal	-3426
▁ለእርስዎ	-3427
▁ያስፈልግ	-3428
▁hanqaa	-3429
▁ilaale	-3430
▁jirtuu	-3431
▁daraaraa	-3432
▁godheera	-3433
▁gowwummaa	-3434
▁qaxxaamur	-3435
ደበ	-3436
▁ፋ	-3437
bir	-3438
ገናኘ	-3439
▁የድ	-3440
aafi	-3441
▁tir	-3442
▁ማስታ	-3443
▁ዘፈን	-3444
▁soba	-3445
▁tolu	-3446
▁waam	-3447
▁ለመሆን	-3448
▁መጠቀም	-3449
▁gaadd	-3450
▁አይችልም	-3451
▁የተወሰነ	-3452
▁argate	-3453
▁balaan	-3454
▁sababni	-3455
▁gaafadhe	-3456
ፍያ	-3457
ኗል።	-3458
▁በጠ	-3459
▁ነግ	-3460
kiin	-3461
neef	-3462
▁qis	-3463
▁ሦስት	-3464
▁አባት	-3465
▁nuff	-3466
▁ለመሄድ	-3467
▁hordo	-3468
▁ibsaa	-3469
▁yaabb	-3470
isiisaa	-3471
▁irraan	-3472
▁qisaas	-3473
▁dhiiraa	-3474
▁tarkaan	-3475
atteettaa	-3476
▁ilaaluun	-3477
▁waggoota	-3478
▁affeerraa	-3479
ቡዋ	-3480
ይን	-3481
እምሮ	-3482
▁በቁ	-3483
▁የሰ	-3484
▁ደር	-3485
▁መረጃ	-3486
▁ስጠኝ	-3487
▁ነዎት	-3488
▁ግንኙ	-3489
inaan	-3490
▁akee	-3491
▁bite	-3492
▁መርዳት	-3493
▁በአንተ	-3494
▁አስቂኝ	-3495
▁አድርጌ	-3496
▁ያድርጉ	-3497
▁argee	-3498
▁hidhaa	-3499
▁miilaa	-3500
▁qabbanaa	-3501
ራፊ	-3502
ርፍ	-3503
omb	-3504
▁ከት	-3505
deen	-3506
ነግርህ	-3507
▁man	-3508
▁ykn	-3509
▁ነበሩ	-3510
▁ፍቅር	-3511
▁eess	-3512
▁ለረጅም	-3513
▁ስራውን	-3514
▁ይናገራ	-3515
tummaa	-3516
▁asoos	-3517
▁ergaa	-3518
▁ትክክለኛ	-3519
▁odeeff	-3520
▁sanduu	-3521
▁daldalaa	-3522
ላቅ	-3523
ረምት	-3524
ንቃቄ	-3525
▁dib	-3526
▁umm	-3527
▁መብራ	-3528
▁በክፍ	-3529
▁አብዛ	-3530
▁አገር	-3531
▁እፈራ	-3532
▁ከሆነ	-3533
▁ከእሱ	-3534
▁kaam	-3535
▁አብረን	-3536
▁ይወስዳ	-3537
umatti	-3538
▁soddo	-3539
▁callis	-3540
▁እንዳለበት	-3541
▁waraqaa	-3542
▁barreessi	-3543
▁dhukkubsa	-3544
▁lakkoofsa	-3545
▁dandeettii	-3546
ውቀ	-3547
ዘገ	-3548
ዘንብ	-3549
ጥቂት	-3550
▁ተገ	-3551
▁የቀ	-3552
▁fir	-3553
▁ኮፍያ	-3554
▁የዚህ	-3555
attuu	-3556
▁yoon	-3557
▁ለማለት	-3558
▁qorri	-3559
▁seene	-3560
▁እንደማት	-3561
▁dursee	-3562
▁piyaan	-3563
▁simbir	-3564
▁እንደሚሆን	-3565
▁kaardii	-3566
▁yaaluun	-3567
▁እገምታለሁ።	-3568
▁dogoggoraa	-3569
ሱ።	-3570
ንጣ	-3571
ወጥ	-3572
ጥብ	-3573
▁ኤ	-3574
▁ባዶ	-3575
▁ገብ	-3576
ጻሕፍት	-3577
▁isp	-3578
▁ሆነ።	-3579
▁በጥሩ	-3580
▁ባቡር	-3581
isiis	-3582
▁maxx	-3583
▁መንዳት	-3584
▁ብቻውን	-3585
▁ዶክተር	-3586
▁isaas	-3587
▁ምንድነው	-3588
▁deemta	-3589
▁waanuma	-3590
▁eessatti	-3591
▁saroonni	-3592
ስህ	-3593
ንግሊ	-3594
▁ፈረ	-3595
arii	-3596
iifi	-3597
▁ሞቃት	-3598
▁አሰብ	-3599
▁ክፍት	-3600
annee	-3601
ቁዋቁዋም	-3602
▁chaa	-3603
▁በፍፁም	-3604
▁ትርጉም	-3605
▁ያውቃሉ	-3606
▁obsuu	-3607
▁gatiin	-3608
▁hawwii	-3609
▁አላስታውስ	-3610
▁gammadd	-3611
▁haaraan	-3612
▁baaburri	-3613
ሁኑ	-3614
ትር	-3615
ጠል	-3616
che	-3617
ፈለጉ	-3618
ፈጠረ	-3619
▁ቀሚ	-3620
▁ቆይ	-3621
▁ይታ	-3622
▁ፖም	-3623
wwaa	-3624
▁ተቀም	-3625
▁እኔም	-3626
▁ይልቅ	-3627
diyoo	-3628
▁አሉት።	-3629
▁ሆስፒታል	-3630
▁መነጋገር	-3631
▁argama	-3632
▁dhiise	-3633
▁እጠላለሁ።	-3634
▁ulfaati	-3635
▁wiixata	-3636
▁በፈረንሳይኛ	-3637
▁አይመስልም።	-3638
▁hogganaa	-3639
ha	-3640
ሰሩ	-3641
በረ	-3642
ኸው	-3643
ገግ	-3644
qor	-3645
ለህም	-3646
▁ca	-3647
▁ለራ	-3648
▁ሞተ	-3649
▁ጠፍ	-3650
ሙዋል።	-3651
▁ari	-3652
▁በመን	-3653
▁ዕድሜ	-3654
▁ገባ።	-3655
▁qaww	-3656
▁quba	-3657
▁በፍጹም	-3658
▁አምስት	-3659
▁አንተን	-3660
▁dallaa	-3661
▁እንደምችል	-3662
▁dubbate	-3663
▁እመርጣለሁ።	-3664
▁argachuun	-3665
▁barbaanna	-3666
ረፈ	-3667
በዛ	-3668
ንክ	-3669
tta	-3670
▁ሜሪ	-3671
ichaa	-3672
▁addaa	-3673
▁hiika	-3674
▁kunoo	-3675
▁reefu	-3676
▁ነገረኝ።	-3677
▁duwwaa	-3678
▁qophii	-3679
▁qorqor	-3680
▁akkasuma	-3681
▁garaagar	-3682
▁barreesse	-3683
▁obboleettiin	-3684
ቸኮ	-3685
ገኙ	-3686
ጤና	-3687
ፈጥ	-3688
▁መራ	-3689
▁ውሾ	-3690
▁ይን	-3691
jaaj	-3692
ረጋገጥ	-3693
▁bos	-3694
▁iyy	-3695
▁አየር	-3696
▁የማን	-3697
▁poos	-3698
▁saay	-3699
▁አሜሪካ	-3700
▁turee	-3701
chiisaa	-3702
▁poostaa	-3703
▁የምፈልገው።	-3704
▁dubartii	-3705
▁fudhadha	-3706
▁teenisii	-3707
▁toomitti	-3708
▁nyaachuuf	-3709
gi	-3710
ረሳ	-3711
ባል	-3712
ቤን	-3713
ጥላ	-3714
▁19	-3715
▁በቃ	-3716
▁ባህ	-3717
▁ነጭ	-3718
▁እም	-3719
▁ዛፍ	-3720
▁ግብ	-3721
bboo	-3722
▁ምልክ	-3723
▁አላየ	-3724
▁ክፍሉ	-3725
▁ጸጉር	-3726
▁afur	-3727
▁ከአንተ	-3728
▁jirre	-3729
▁ተማሪዎች	-3730
▁harkaa	-3731
▁ofitti	-3732
▁xuuxuu	-3733
▁እንግሊዘኛ	-3734
▁rakkisaa	-3735
▁ingiliffaa	-3736
ነዳ	-3737
ንቲ	-3738
ንፋ	-3739
ከፋ	-3740
ጠቀ	-3741
goo	-3742
ንሰር	-3743
tara	-3744
▁ያደረ	-3745
▁አይሆን	-3746
annoon	-3747
ibsiif	-3748
neerra	-3749
▁fedhe	-3750
▁mudaa	-3751
▁garagal	-3752
▁hiriyaa	-3753
▁hamaadha	-3754
▁hojiitti	-3755
▁sodaadha	-3756
▁አመሰግናለሁ።	-3757
▁keessanii	-3758
▁barattoonni	-3759
ረም	-3760
▁H	-3761
inu	-3762
ረዳህ	-3763
▁ሥዕ	-3764
▁ቀጥ	-3765
▁የፈ	-3766
suun	-3767
መሰግና	-3768
ችለውን	-3769
▁ብልህ	-3770
▁እህቴ	-3771
▁ወተት	-3772
▁ዙሪያ	-3773
▁ጥቁር	-3774
kaaka	-3775
▁መልካም	-3776
▁መጠጣት	-3777
▁ስብሰባ	-3778
▁ወንዶች	-3779
▁himne	-3780
▁daftee	-3781
▁dabarsuu	-3782
▁qaruuraa	-3783
?"	-3784
ላው	-3785
ርክ	-3786
በኛ	-3787
ነብ	-3788
ደግ	-3789
ጠባ	-3790
▁ሬ	-3791
መልከ	-3792
▁ሆቴ	-3793
▁ልጄ	-3794
▁ገበ	-3795
▁bul	-3796
▁አንብ	-3797
▁በሰአቱ	-3798
taniif	-3799
▁fagaa	-3800
▁አስባለሁ	-3801
▁umurii	-3802
amaniiru	-3803
▁isaanis	-3804
▁fudhadhu	-3805
▁jechootaa	-3806
xa	-3807
ቶቹ	-3808
kka	-3809
ጀምር	-3810
▁ሄደ	-3811
▁ብቸ	-3812
▁ይቀ	-3813
▁bor	-3814
▁ለውጥ	-3815
▁boqo	-3816
▁ንገረኝ	-3817
▁አድርገ	-3818
▁fagoo	-3819
▁እየሞከር	-3820
▁ciniin	-3821
▁qofatu	-3822
▁dukkanaa	-3823
▁dandeenyaa	-3824
ቻለ	-3825
▁ለማስ	-3826
▁መልእ	-3827
▁ውሻው	-3828
▁ያልተ	-3829
▁ያንተ	-3830
aawaa	-3831
ombol	-3832
▁መሞከር	-3833
▁መኪናው	-3834
▁kennu	-3835
▁ለመግዛት	-3836
▁ብስክሌት	-3837
▁deemsa	-3838
▁rukute	-3839
▁sodaat	-3840
▁አያስፈልገ	-3841
▁እሄዳለሁ።	-3842
▁bineens	-3843
▁dhiisee	-3844
▁obombol	-3845
▁gaaddisa	-3846
▁hubachuu	-3847
▁dabarseera	-3848
▁ሩ	-3849
ለኝ።	-3850
ጓል።	-3851
▁ለም	-3852
ኛውንም	-3853
ጠይቅህ	-3854
▁ሞከር	-3855
▁በቶም	-3856
▁በድን	-3857
▁አለኝ	-3858
▁አልጋ	-3859
adhee	-3860
▁laga	-3861
▁ኮምፒው	-3862
▁መጽሀፉን	-3863
▁akaaka	-3864
▁naanna	-3865
▁akkanaa	-3866
▁kennite	-3867
▁namichi	-3868
▁paarkii	-3869
▁bilbilli	-3870
▁አላስታውስም።	-3871
▁hanqaaquu	-3872
▁sodaachis	-3873
▁bareedduudha	-3874
ሰረ	-3875
የኝ	-3876
ele	-3877
kuu	-3878
ዎቹን	-3879
ግስት	-3880
▁መተ	-3881
▁የስ	-3882
▁laf	-3883
▁muf	-3884
▁ህይወ	-3885
▁መጣ።	-3886
ፈልገውን	-3887
▁እንሂድ	-3888
▁ganna	-3889
▁የለንም።	-3890
▁ይፈልጋል	-3891
▁argamu	-3892
▁እንዳልሆነ	-3893
▁soddoma	-3894
▁dhufeera	-3895
▁hojjedhe	-3896
▁meeqatti	-3897
▁ulfaatina	-3898
ሮጥ	-3899
ሸራ	-3900
ሽ።	-3901
ናቂ	-3902
ጆች	-3903
ሞክር	-3904
ረዳኝ	-3905
▁ለተ	-3906
▁ቀር	-3907
▁ይው	-3908
ppii	-3909
▁መተው	-3910
▁ማሰብ	-3911
▁ቁልፍ	-3912
▁አላት።	-3913
▁እንደሌ	-3914
▁ጠረጴዛ	-3915
▁bitaa	-3916
▁gaaze	-3917
▁aniifi	-3918
▁isaatti	-3919
▁dubbadhu	-3920
▁meeshaalee	-3921
ውቁ	-3922
ፊያ	-3923
ጧል።	-3924
▁መገ	-3925
▁ይም	-3926
amte	-3927
▁ሁለታ	-3928
▁የፈለ	-3929
▁መጠየቅ	-3930
▁ቤተሰብ	-3931
▁ያደረገ	-3932
▁fuudh	-3933
▁ተመለከተ	-3934
▁bilisa	-3935
▁piyaanoo	-3936
▁poolisii	-3937
ve	-3938
ላከ	-3939
ሬው	-3940
ስቱ	-3941
ኝን	-3942
▁ኦ	-3943
res	-3944
ጠቢያ	-3945
▁ከም	-3946
naan	-3947
▁mis	-3948
▁አጭር	-3949
▁እንቁ	-3950
▁ከየት	-3951
▁ፒያኖ	-3952
▁saam	-3953
▁tole	-3954
▁አላገኘ	-3955
▁cinaa	-3956
▁goota	-3957
▁qaana	-3958
▁qajee	-3959
▁አሰብኩ።	-3960
▁አውሮፕላ	-3961
▁እውነተኛ	-3962
▁balali	-3963
▁dhihoo	-3964
▁dhufaa	-3965
▁dhufne	-3966
▁ilaalu	-3967
▁maraat	-3968
▁መቁዋቁዋም	-3969
▁ማንኛውንም	-3970
▁dubbanne	-3971
▁hojjettu	-3972
▁gurraacha	-3973
▁barreessaa	-3974
ላፊ	-3975
ማሽ	-3976
ርጥ	-3977
ደደ	-3978
▁B	-3979
▁D	-3980
ውጣት	-3981
▁ut	-3982
▁ያነ	-3983
ppaa	-3984
▁gub	-3985
▁xur	-3986
▁ህመም	-3987
▁የተወ	-3988
▁ፈገግ	-3989
atama	-3990
▁ለማንም	-3991
aatiif	-3992
▁maash	-3993
▁ለመናገር	-3994
▁roobaa	-3995
▁አይደሉም።	-3996
▁tokkotu	-3997
▁dhuunfaa	-3998
▁kitaabicha	-3999
መጥ	-4000
ሰቡ	-4001
ጣል	-4002
▁5	-4003
ላሉ።	-4004
ነገረ	-4005
ዘጋጅ	-4006
ጠይቃ	-4007
▁መመ	-4008
▁ልጆቹ	-4009
▁እናት	-4010
aanni	-4011
oolii	-4012
ናገረውን	-4013
▁bade	-4014
▁muux	-4015
▁መስጠት	-4016
▁በእግር	-4017
▁biroo	-4018
▁ወዲያውኑ	-4019
▁darbee	-4020
▁deemna	-4021
▁dhiyoo	-4022
▁keekii	-4023
▁gowwoom	-4024
▁dubbachuuf	-4025
▁hojjechuun	-4026
ሃኒ	-4027
ሪው	-4028
ባይ	-4029
ናግ	-4030
ዲት	-4031
ጡት	-4032
eeb	-4033
ችኹዋ	-4034
ናለሁ	-4035
ጠበቀ	-4036
▁ለል	-4037
▁ከል	-4038
ቡዋል።	-4039
▁መደብ	-4040
▁እግር	-4041
▁ፍጹም	-4042
▁ሰዎችን	-4043
▁በጃፓን	-4044
▁ችግሩን	-4045
aaleen	-4046
▁gamoo	-4047
▁beekna	-4048
▁qawwee	-4049
▁እንደሚችል	-4050
▁aanutti	-4051
▁dirqama	-4052
▁gammada	-4053
▁uffatte	-4054
▁gaariidha	-4055
ራ።	-4056
ተወ	-4057
ታር	-4058
ፋጭ	-4059
▁S	-4060
▁ሜ	-4061
▁ጊ	-4062
rra	-4063
ባቸው	-4064
ንጥላ	-4065
ኖረኝ	-4066
▁ተወዳ	-4067
▁ወይስ	-4068
▁የሴት	-4069
galaa	-4070
▁dees	-4071
▁gahe	-4072
▁ያውቃል	-4073
▁ግንኙነት	-4074
▁konsar	-4075
▁yaaduu	-4076
ataniiru	-4077
▁argeera	-4078
▁shamarr	-4079
▁balballi	-4080
ላቀ	-4081
ፋ።	-4082
በደር	-4083
ኛለህ	-4084
▁ሄጄ	-4085
▁ሞክ	-4086
araa	-4087
▁ሻንጣ	-4088
▁ዝርዝ	-4089
gaara	-4090
ittan	-4091
▁አለህ።	-4092
▁እያንዳ	-4093
▁ወላጆቼ	-4094
▁machaa	-4095
▁ትችላለህ።	-4096
▁dhangala	-4097
▁gargaara	-4098
▁jiraadha	-4099
▁odeeffannoo	-4100
ረዱ	-4101
ሯል	-4102
ውም	-4103
ola	-4104
ለው።	-4105
ራፊክ	-4106
ስህን	-4107
ነበብ	-4108
▁ባል	-4109
ብህም።	-4110
▁fun	-4111
▁አሰል	-4112
▁አድራ	-4113
chaan	-4114
iitti	-4115
▁adii	-4116
▁መዝገበ	-4117
▁ነበርክ	-4118
▁ገዛሁ።	-4119
▁galuu	-4120
▁hangam	-4121
▁lammii	-4122
▁maxxan	-4123
▁qabaat	-4124
▁sochii	-4125
▁taatee	-4126
▁አልፈልግም	-4127
▁እፈራለሁ።	-4128
▁tiraafi	-4129
▁xiqqaate	-4130
▁dhugaadha	-4131
ለቅ	-4132
ንፃ	-4133
▁ዲ	-4134
doo	-4135
lle	-4136
sin	-4137
ሞችን	-4138
▁ምግ	-4139
iyoo	-4140
▁ምርጥ	-4141
▁አለም	-4142
▁እየቀ	-4143
▁ይሻል	-4144
▁tele	-4145
▁ሰአታት	-4146
▁በቀላሉ	-4147
▁አስተዋ	-4148
▁አስታው	-4149
▁ያለብን	-4150
▁ይመስል	-4151
▁በህይወት	-4152
▁warraa	-4153
▁mijataa	-4154
▁ትመስላለህ።	-4155
▁barachaa	-4156
▁dhiyeess	-4157
▁gargaaraa	-4158
▁barsiisaan	-4159
▁jaallattaa	-4160
vi	-4161
ለቀ	-4162
ንቱ	-4163
ደን	-4164
kir	-4165
ችሁ።	-4166
▁እብ	-4167
▁ከሌ	-4168
▁የሌ	-4169
▁በማን	-4170
▁ትሄዳ	-4171
▁እንጂ	-4172
▁ጓደኞ	-4173
ግጠኝነት	-4174
▁agar	-4175
▁imal	-4176
▁ለሁሉም	-4177
▁መድሃኒ	-4178
▁አለብህ	-4179
▁አደንቃ	-4180
isiisa	-4181
▁deemi	-4182
▁ልነግርህ	-4183
▁ታደርጋለህ	-4184
▁baankii	-4185
▁እንችላለን።	-4186
▁akkamittan	-4187
▁dinqisiifadha	-4188
ሙዋ	-4189
ካል	-4190
ፉ።	-4191
▁ጮ	-4192
rri	-4193
ራል።	-4194
riin	-4195
▁ተግባ	-4196
▁አለቃ	-4197
▁ከቤት	-4198
attan	-4199
▁cacc	-4200
▁gama	-4201
▁quuf	-4202
▁አይሰማ	-4203
▁daree	-4204
▁dhuguu	-4205
▁tarree	-4206
▁walgah	-4207
▁yaadne	-4208
▁ሰምቻለሁ።	-4209
▁bitadhe	-4210
▁gaafatte	-4211
▁በእርግጠኝነት	-4212
▁dubbachuun	-4213
▁magaalattii	-4214
ሰቃ	-4215
ኩም	-4216
xii	-4217
ታቸው	-4218
▁ይመ	-4219
idha	-4220
ፈለግክ	-4221
▁ቁርስ	-4222
▁የእኛ	-4223
▁dhor	-4224
▁fufe	-4225
▁ማስታወ	-4226
▁gudda	-4227
▁መኪናውን	-4228
▁dachaa	-4229
▁sanaan	-4230
▁deebiin	-4231
▁sanduuqa	-4232
▁sirritti	-4233
▁dhukkubbii	-4234
▁ijoollummaa	-4235
ሜራ	-4236
ሞላ	-4237
ሥር	-4238
ያይ	-4239
ጣሉ	-4240
ጭቆ	-4241
▁ጓ	-4242
ያንስ	-4243
▁20	-4244
▁ልም	-4245
▁ስል	-4246
▁ብታ	-4247
etti	-4248
jjab	-4249
ላለሁ።	-4250
ሻለሁ።	-4251
ከባከብ	-4252
ዎታል።	-4253
▁qub	-4254
▁ስልኩ	-4255
▁አይታ	-4256
▁ጀርባ	-4257
▁ፈለገ	-4258
▁ilmi	-4259
▁kufe	-4260
▁ቢያንስ	-4261
▁የእግር	-4262
▁intal	-4263
▁saandu	-4264
▁እንደሆንኩ	-4265
▁hayyama	-4266
▁galateeff	-4267
▁hojjedheera	-4268
ጠው	-4269
san	-4270
ttu	-4271
ሪዎች	-4272
ዋለሁ	-4273
▁ሸሚ	-4274
▁ተሸ	-4275
▁የግ	-4276
▁ጠይ	-4277
choo	-4278
mata	-4279
▁ሕንፃ	-4280
▁ስለሱ	-4281
▁በርሳ	-4282
▁የድሮ	-4283
▁ይበል	-4284
▁ጠበቃ	-4285
llaan	-4286
▁bahu	-4287
▁rafe	-4288
▁ስራዬን	-4289
▁ቅዳሜና	-4290
▁አልበላ	-4291
arraan	-4292
▁duuba	-4293
▁kaayy	-4294
▁sagan	-4295
▁ገንዘቡን	-4296
▁seeraa	-4297
▁እንደሆንክ	-4298
▁hawwata	-4299
▁miilaan	-4300
▁dagatinaa	-4301
▁faransaayiin	-4302
ኝታ	-4303
ዮን	-4304
ጋራ	-4305
▁I	-4306
ook	-4307
ቆየት	-4308
ቻለሁ	-4309
ከሰት	-4310
ጋችሁ	-4311
▁ሃሳ	-4312
▁ሰጥ	-4313
ብኛል።	-4314
▁dho	-4315
▁dor	-4316
▁fin	-4317
▁ሚስጥ	-4318
▁ቡድን	-4319
▁እይታ	-4320
▁ካሜራ	-4321
▁ድምጽ	-4322
▁ጥቅም	-4323
▁chee	-4324
▁cicc	-4325
▁gale	-4326
▁ተወዳጅ	-4327
▁አልነበ	-4328
▁immoo	-4329
▁ማረጋገጥ	-4330
▁bilbile	-4331
▁seenaan	-4332
▁karoorri	-4333
▁argadheera	-4334
መደ	-4335
ስቃ	-4336
ጋይ	-4337
ጸዳ	-4338
qee	-4339
ቀበል	-4340
ዶችን	-4341
▁መከ	-4342
▁በሽ	-4343
▁ታም	-4344
▁ትል	-4345
▁ናት	-4346
▁እቅ	-4347
▁ውጪ	-4348
kaas	-4349
▁tuu	-4350
▁ህልም	-4351
▁በእሱ	-4352
▁ቢሆን	-4353
▁እስኪ	-4354
▁ይሞክ	-4355
▁ጣፋጭ	-4356
▁qaala	-4357
▁rafuu	-4358
▁መጻሕፍት	-4359
▁እናደርጋ	-4360
▁የማውቀው	-4361
▁caccab	-4362
▁qabuuf	-4363
▁እናመሰግና	-4364
▁አይፈልግም።	-4365
▁saanduqa	-4366
▁murteesse	-4367
▁muuxannoo	-4368
▁qabadheen	-4369
▁qilleensa	-4370
▁dadhabeera	-4371
▁hospitaala	-4372
ነሱ	-4373
ጨት	-4374
▁G	-4375
ብላት	-4376
ብሰል	-4377
ቦችን	-4378
ፓርኩ	-4379
▁re	-4380
▁ነፋ	-4381
▁አጣ	-4382
roon	-4383
tuun	-4384
▁her	-4385
▁ሀኪም	-4386
▁እሰራ	-4387
▁እገዛ	-4388
▁ጠየቅ	-4389
▁beey	-4390
▁eega	-4391
▁መክፈል	-4392
▁ትላንት	-4393
▁ክረምት	-4394
▁bahee	-4395
▁ibidd	-4396
▁rooba	-4397
▁እንደምን	-4398
▁እያሰብኩ	-4399
▁ከእነዚህ	-4400
▁የትኛውን	-4401
▁godhaa	-4402
▁gootan	-4403
▁ጥያቄዎችን	-4404
▁dadhabe	-4405
▁uffatee	-4406
▁አደንቃለሁ።	-4407
▁bilbiluu	-4408
▁ያስፈልግዎታል	-4409
▁liqeessuu	-4410
▁wantoonni	-4411
▁bareedaadha	-4412
ላሳ	-4413
መስል	-4414
ችሁን	-4415
ደረጉ	-4416
▁or	-4417
▁ትዕ	-4418
▁ቤቱን	-4419
▁ተነሳ	-4420
▁አሉት	-4421
▁ወንጀ	-4422
ሬያለሁ።	-4423
▁qusa	-4424
▁sukk	-4425
▁wall	-4426
▁ብርጭቆ	-4427
▁ወላጆች	-4428
▁soogi	-4429
▁ነበረች።	-4430
eessite	-4431
▁nyaatu	-4432
▁carraan	-4433
▁nyaanne	-4434
▁nyaanni	-4435
▁waraana	-4436
▁yaadadha	-4437
▁አልነበረኝም።	-4438
▁jaallatti	-4439
▁xiyyaaraa	-4440
▁dargaggeessa	-4441
ሙ።	-4442
ሬታ	-4443
ገነ	-4444
ፁህ	-4445
▁z	-4446
:30	-4447
iiz	-4448
ona	-4449
ለኛው	-4450
ሎችን	-4451
ማል።	-4452
ርስቲ	-4453
ፍራም	-4454
▁ጥን	-4455
▁mak	-4456
▁በቀር	-4457
▁ችግሩ	-4458
▁ጊታር	-4459
amuuf	-4460
atame	-4461
uutti	-4462
▁aduu	-4463
▁ibsa	-4464
▁ትኩረት	-4465
▁እባክዎ	-4466
▁እድለኛ	-4467
▁ነበረው።	-4468
▁cimaan	-4469
▁fakkii	-4470
▁torbee	-4471
▁አምናለሁ።	-4472
▁አይቻለሁ።	-4473
▁hoteela	-4474
▁nyaadhu	-4475
▁dubbisaa	-4476
▁hirribaa	-4477
▁yaadachuu	-4478
▁yaadannoo	-4479
▁jijjiirama	-4480
ሳስ	-4481
ኖሩ	-4482
ያዩ	-4483
000	-4484
ረዋል	-4485
ሳለሁ	-4486
ደረሰ	-4487
ገንዘ	-4488
▁10	-4489
▁ልጃ	-4490
▁ሞኝ	-4491
▁ተው	-4492
▁ታማ	-4493
▁ቶሎ	-4494
▁ችሎ	-4495
lloo	-4496
መለከት	-4497
▁ቀሚስ	-4498
▁ተረድ	-4499
▁ትሆና	-4500
▁አልፎ	-4501
▁አዲሱ	-4502
▁የቅር	-4503
▁ያገኘ	-4504
▁ball	-4505
▁ህይወት	-4506
▁ለሦስት	-4507
▁የትኛው	-4508
▁ያደረግ	-4509
▁keeti	-4510
▁liqii	-4511
▁ጠየቀኝ።	-4512
▁dhufte	-4513
▁yaadee	-4514
▁አገኘሁት።	-4515
▁deeskii	-4516
▁intalti	-4517
▁dhiiseen	-4518
▁dhaabbati	-4519
▁tasgabbaa	-4520
ለብ	-4521
ነገ	-4522
ddu	-4523
oni	-4524
ኹዋል	-4525
▁ቆር	-4526
▁ታሪ	-4527
▁ድግ	-4528
,000	-4529
▁ሌሎች	-4530
▁ቅሬታ	-4531
▁እችል	-4532
▁የምር	-4533
▁finc	-4534
▁አይገባ	-4535
▁አድራሻ	-4536
▁እንድን	-4537
▁ጦርነት	-4538
▁goonu	-4539
▁utaal	-4540
▁ስለነበር	-4541
irratti	-4542
▁dhagaa	-4543
▁televi	-4544
▁ይሻልሃል።	-4545
▁nageenya	-4546
▁qabachuu	-4547
▁hojjetame	-4548
ca	-4549
ልባ	-4550
ሮቹ	-4551
ኳር	-4552
ገን	-4553
▁3	-4554
ከረ።	-4555
ከውን	-4556
▁መላ	-4557
▁በዛ	-4558
▁አቀ	-4559
▁ጥፋ	-4560
tira	-4561
▁መጠጥ	-4562
▁ስህተ	-4563
▁አሉዋ	-4564
▁አገኛ	-4565
▁ሳይሆን	-4566
▁በበረዶ	-4567
▁አጣሁ።	-4568
▁barre	-4569
▁miliq	-4570
▁ልጠይቅህ	-4571
▁እንግሊዝኛ	-4572
▁argadhu	-4573
▁dhabuun	-4574
▁ilaallu	-4575
▁kanneen	-4576
taniittuu	-4577
▁hiriyoonni	-4578
▁televijiin	-4579
ቃወ	-4580
ንሰ	-4581
ጽፍ	-4582
ilb	-4583
sif	-4584
ህም።	-4585
በዋል	-4586
ንፋን	-4587
ወሰን	-4588
ገባኝ	-4589
▁በብ	-4590
▁የቆ	-4591
▁የፍ	-4592
▁ይሄ	-4593
▁ጋዜ	-4594
biin	-4595
chif	-4596
▁baq	-4597
▁jii	-4598
▁ራሱን	-4599
▁ሰላሳ	-4600
▁ሳጥን	-4601
▁ቅርብ	-4602
▁በልጅ	-4603
▁ንፁህ	-4604
▁ድመት	-4605
aanii	-4606
attaa	-4607
siise	-4608
▁heer	-4609
▁እሱዋን	-4610
▁እየሆነ	-4611
▁ወፍራም	-4612
teetta	-4613
▁dorgo	-4614
▁eegal	-4615
▁አስቀድሜ	-4616
▁እሄዳለሁ	-4617
▁የተሳሳተ	-4618
▁karaan	-4619
▁አድርጓል።	-4620
▁akeekka	-4621
▁dabarsi	-4622
▁qabeessa	-4623
▁dhaabbata	-4624
▁shamarran	-4625
▁kofalchiis	-4626
▁gaafatamummaa	-4627
ሃን	-4628
ነቀ	-4629
ገል	-4630
▁ሶ	-4631
ela	-4632
ኩትን	-4633
▁ስታ	-4634
▁ቁጥ	-4635
▁ተደ	-4636
▁ይሸ	-4637
▁ጣዕ	-4638
ተሃል።	-4639
▁dug	-4640
▁ሴቶች	-4641
▁በማለ	-4642
▁አመጣ	-4643
▁እመለ	-4644
aarri	-4645
▁himu	-4646
▁መግባት	-4647
▁ባለቤቴ	-4648
▁አትክል	-4649
▁ኩባንያ	-4650
▁የነበረ	-4651
anneen	-4652
keetii	-4653
oortii	-4654
▁qabuu	-4655
▁ይለኛል።	-4656
▁bosona	-4657
▁hatatt	-4658
▁heerum	-4659
▁daabboo	-4660
▁dhaabuu	-4661
▁asoosama	-4662
▁barnoota	-4663
▁duraanis	-4664
መና	-4665
በሳ	-4666
ኪዮ	-4667
ፈስ	-4668
▁(	-4669
▁ሪ	-4670
▁ዩ	-4671
ish	-4672
xee	-4673
ረጋግ	-4674
▁ቤቴ	-4675
▁ችላ	-4676
▁የሞ	-4677
▁ጠየ	-4678
ራለች።	-4679
▁ሃሳብ	-4680
▁መከረ	-4681
▁ቆሻሻ	-4682
▁ተዘግ	-4683
illee	-4684
▁adab	-4685
▁hiyy	-4686
▁soor	-4687
▁መሳሪያ	-4688
▁ወንበር	-4689
▁gogaa	-4690
▁himte	-4691
▁ለመስራት	-4692
▁በድንገት	-4693
▁የሆነውን	-4694
▁ያስፈልጋ	-4695
▁haasaa	-4696
▁lubbuu	-4697
▁umriin	-4698
▁cimaadha	-4699
▁qabuudha	-4700
▁አያስፈልገኝም።	-4701
et	-4702
መመ	-4703
ሽር	-4704
ገለ	-4705
ጎበ	-4706
chu	-4707
ዎትም	-4708
▁ሀሳ	-4709
▁ከው	-4710
▁qam	-4711
▁ለፊት	-4712
▁በቀን	-4713
▁ባህሪ	-4714
▁አይን	-4715
umsaa	-4716
▁dide	-4717
▁eege	-4718
▁jaar	-4719
▁kuta	-4720
▁laaf	-4721
▁leen	-4722
▁መቀመጫ	-4723
▁ሰማያዊ	-4724
▁ያስቀም	-4725
onitti	-4726
▁badii	-4727
▁mirga	-4728
▁roobe	-4729
▁salph	-4730
▁hordof	-4731
▁soores	-4732
▁turuuf	-4733
▁koochoo	-4734
▁yaaddoo	-4735
▁dhiisuun	-4736
▁gaafadhu	-4737
▁hawwataa	-4738
▁jechoota	-4739
▁gidduutti	-4740
▁barbaachisaadha	-4741
ሳቱ	-4742
ቀዝ	-4743
ካክ	-4744
ወቀ	-4745
aak	-4746
▁ለስ	-4747
▁ሌሊ	-4748
fiin	-4749
siin	-4750
▁kut	-4751
▁አይኖ	-4752
▁እየጨ	-4753
▁ኹዋላ	-4754
▁ያለብ	-4755
▁ይጫወ	-4756
▁ጣዕም	-4757
arsii	-4758
▁eegu	-4759
▁tuff	-4760
▁ስለዚያ	-4761
▁ተናገረ	-4762
▁የጃፓን	-4763
▁sibii	-4764
▁ሁላችሁም	-4765
▁ለመጨረሻ	-4766
▁መልእክት	-4767
▁መስኮቱን	-4768
▁ስብሰባው	-4769
▁baasii	-4770
▁daakuu	-4771
stonitti	-4772
▁ogummaa	-4773
▁ያስፈልገዋል	-4774
▁fiilmiin	-4775
▁ilaaluuf	-4776
▁jabeessa	-4777
▁agarsiisa	-4778
▁barachuuf	-4779
▁dhagahamu	-4780
▁dhageenye	-4781
መኝ	-4782
ቅ።	-4783
ነቴ	-4784
ንጫ	-4785
ዝብ	-4786
ጥሞ	-4787
▁W	-4788
▁ሾ	-4789
ila	-4790
ፈቅድ	-4791
▁ምላ	-4792
▁አሻ	-4793
▁ከቀ	-4794
▁ወታ	-4795
▁የጸ	-4796
▁ደወ	-4797
▁ፈር	-4798
▁hoo	-4799
▁በአል	-4800
▁ከጓደ	-4801
▁ዕድል	-4802
▁ያሉት	-4803
▁faar	-4804
▁sadd	-4805
▁ችግሮች	-4806
▁ነበር፣	-4807
▁ከመጠን	-4808
▁የሚወዱ	-4809
▁ijaan	-4810
▁ተሰማኝ።	-4811
▁ቴሌቪዥን	-4812
▁borsaa	-4813
▁hangas	-4814
▁hantuu	-4815
▁himuuf	-4816
▁isaati	-4817
▁qabamee	-4818
▁rakkina	-4819
▁qabeenya	-4820
▁asirratti	-4821
▁qorqorroo	-4822
qe	-4823
ሊስ	-4824
ሩኝ	-4825
ኒው	-4826
ኔን	-4827
የሁ	-4828
ዶቹ	-4829
ጥፎ	-4830
▁ጆ	-4831
ረዳው	-4832
ስቃሴ	-4833
በላሽ	-4834
ጋጣሚ	-4835
ግባት	-4836
▁id	-4837
▁ቀረ	-4838
▁በክ	-4839
▁ተዋ	-4840
▁ተጋ	-4841
▁ቲቪ	-4842
▁ከጠ	-4843
▁ዳግ	-4844
ጃለሁ።	-4845
▁መነጽ	-4846
▁ታላቅ	-4847
▁ታክሲ	-4848
▁ነበራ	-4849
▁ውሸት	-4850
▁አስፈሪ	-4851
▁እናውቃ	-4852
▁duruu	-4853
▁fiduu	-4854
▁gaara	-4855
▁ibsuu	-4856
▁liqim	-4857
▁አስደናቂ	-4858
▁ይሄዳል።	-4859
▁ይሰራል።	-4860
▁ይቅርታ፣	-4861
▁furdaa	-4862
▁keetti	-4863
▁saayin	-4864
▁taaksii	-4865
▁deebisee	-4866
▁yaadadhu	-4867
▁guyyaatti	-4868
▁እናመሰግናለን።	-4869
ro	-4870
ቡር	-4871
ቡት	-4872
ባብ	-4873
ያቂ	-4874
dir	-4875
ite	-4876
ባለህ	-4877
ጀምራ	-4878
▁de	-4879
▁ተቆ	-4880
▁የሙ	-4881
▁የደ	-4882
leen	-4883
መጣም።	-4884
ኩትም።	-4885
▁ሰላም	-4886
▁ተስማ	-4887
▁አረፍ	-4888
▁ጉዳት	-4889
▁koma	-4890
▁ስድስት	-4891
▁ተኛሁ።	-4892
▁caala	-4893
▁fidaa	-4894
▁giddu	-4895
▁herre	-4896
▁በአትክል	-4897
▁ብሎኛል።	-4898
▁አልችልም	-4899
▁አውቶቡስ	-4900
▁እወዳለሁ	-4901
▁ጠረጴዛው	-4902
▁gubbaa	-4903
▁ibidda	-4904
▁kottaa	-4905
▁በጠረጴዛው	-4906
▁hawwatu	-4907
▁maatiin	-4908
▁qorraan	-4909
▁fuuldura	-4910
▁jalqabuu	-4911
▁waliigal	-4912
▁boostonitti	-4913
ce	-4914
ሄዱ	-4915
ሸጥ	-4916
ግሩ	-4917
ፋር	-4918
koo	-4919
ቶቡስ	-4920
ቶቹን	-4921
▁መፃ	-4922
▁የሁ	-4923
▁ግጥ	-4924
▁ጤና	-4925
▁መሬት	-4926
▁አሸን	-4927
▁አይቼ	-4928
▁እቤት	-4929
▁ወሰደ	-4930
▁ድንቅ	-4931
amtii	-4932
▁olka	-4933
▁በክፍሉ	-4934
▁አቁም።	-4935
▁አላቸው።	-4936
▁አይተሃል	-4937
▁አገኘሁ።	-4938
▁dhaquu	-4939
▁gareen	-4940
▁qabate	-4941
▁sirbuu	-4942
▁suukan	-4943
▁manneen	-4944
▁አውስትራሊያ	-4945
▁hundatti	-4946
▁walgahiin	-4947
▁dagadheera	-4948
ማረ	-4949
ራብ	-4950
ባረ	-4951
ኩለ	-4952
▁ጡ	-4953
isu	-4954
ሄደው	-4955
ለተኛ	-4956
ሪያው	-4957
ሳቀስ	-4958
ወገድ	-4959
▁ለዛ	-4960
▁ስን	-4961
▁በሕ	-4962
▁ይበ	-4963
▁ጥቅ	-4964
▁ጽሑ	-4965
edha	-4966
ሰራም።	-4967
▁mad	-4968
▁mal	-4969
▁ruu	-4970
▁ሆቴል	-4971
▁ለማጥ	-4972
▁ስለተ	-4973
▁አስብ	-4974
▁አውቀ	-4975
▁እኔና	-4976
▁ድምፅ	-4977
amtee	-4978
iyoon	-4979
tichi	-4980
▁ልትነግ	-4981
▁አልሄድ	-4982
▁አሰልቺ	-4983
▁ከሶስት	-4984
▁ያለብኝ	-4985
iseera	-4986
▁dhiib	-4987
▁qaama	-4988
▁እንስሳት	-4989
▁michuu	-4990
▁suuqii	-4991
▁argitee	-4992
▁daldala	-4993
▁meeqatu	-4994
ከኝ	-4995
ስዎን	-4996
ያለሁ	-4997
ጨነቃ	-4998
▁ራስ	-4999
▁ሽጉ	-5000
ድርግ።	-5001
▁jar	-5002
▁riq	-5003
▁ላለመ	-5004
▁መብት	-5005
▁ቀልድ	-5006
▁በስተ	-5007
▁ብለን	-5008
▁ተሳስ	-5009
▁ተጫዋ	-5010
▁ችሎታ	-5011
▁አላማ	-5012
▁የእጅ	-5013
▁arga	-5014
▁biyy	-5015
▁ጉንፋን	-5016
▁baruu	-5017
▁gahuu	-5018
▁አውቃለሁ	-5019
▁roobuu	-5020
▁አይወድም።	-5021
▁beektuu	-5022
▁gabaasa	-5023
▁kanatti	-5024
▁lammata	-5025
▁soogidda	-5026
▁torbanitti	-5027
▁konkolaachisaa	-5028
ናሽ	-5029
ንጉ	-5030
ሉዋል	-5031
ቦቹን	-5032
ተኞች	-5033
▁ok	-5034
በትም።	-5035
▁arr	-5036
▁dig	-5037
▁ቤተሰ	-5038
▁አሳየ	-5039
▁አቁም	-5040
▁አነሳ	-5041
▁እነሱ	-5042
▁aanu	-5043
▁morm	-5044
▁ሞከረ።	-5045
▁ሰማሁ።	-5046
▁አብረው	-5047
▁እንሄዳ	-5048
▁እየሄድ	-5049
▁fiige	-5050
▁harki	-5051
▁ሞከርኩ።	-5052
▁ነበረኝ።	-5053
▁እርስዎን	-5054
▁aangoo	-5055
▁deeman	-5056
▁dhaaba	-5057
▁dorgom	-5058
▁hamaan	-5059
▁seenuu	-5060
▁አዝናለሁ።	-5061
▁anillee	-5062
▁caalaan	-5063
▁koottaa	-5064
▁dubbatte	-5065
▁akkanatti	-5066
▁gaarummaa	-5067
▁barbaaddan	-5068
▁garaagarummaa	-5069
መራ	-5070
ረታ	-5071
ሮው	-5072
ነ።	-5073
ድና	-5074
▁'	-5075
ሰማኝ	-5076
ሳል።	-5077
ቻችን	-5078
▁ረድ	-5079
▁በፖ	-5080
▁እቃ	-5081
▁እጥ	-5082
▁የጠ	-5083
iyee	-5084
ናገር።	-5085
ገንዘብ	-5086
▁ibs	-5087
▁ስላል	-5088
▁በገና	-5089
▁አስር	-5090
▁አያቴ	-5091
▁እስክ	-5092
▁እየሞ	-5093
▁ይውሰ	-5094
▁ጀመር	-5095
▁ጭንቅ	-5096
ርሱዋል።	-5097
▁obsa	-5098
▁ሌሊቱን	-5099
▁ቀድሞው	-5100
▁በሁሉም	-5101
▁በተቻለ	-5102
▁አልፈለ	-5103
▁አድርጎ	-5104
▁እጠብቃ	-5105
▁ይሰራል	-5106
▁ድመቱዋ	-5107
▁dugda	-5108
▁eegga	-5109
▁gurgu	-5110
▁seenu	-5111
▁ማስታወሻ	-5112
▁በአጋጣሚ	-5113
▁ይመጣል።	-5114
▁ደክሞኛል	-5115
▁ጥያቄዎች	-5116
▁baatee	-5117
▁geenye	-5118
▁kaasee	-5119
▁reefuu	-5120
▁እንቅስቃሴ	-5121
▁እየሞከርኩ	-5122
▁ይናገራል።	-5123
▁fudhatu	-5124
▁shakkii	-5125
▁nyaachaa	-5126
▁sagaleen	-5127
▁waraanaa	-5128
▁barachuun	-5129
▁dhiheenya	-5130
▁tarkaanfii	-5131
ge	-5132
ke	-5133
ዲስ	-5134
▁ኑ	-5135
tni	-5136
ሶችን	-5137
ውሰድ	-5138
▁ተም	-5139
▁ተር	-5140
▁ተሰ	-5141
▁የኮ	-5142
▁የጎ	-5143
ብሰባው	-5144
ደርጉት	-5145
▁qon	-5146
▁ሀገር	-5147
▁በአደ	-5148
▁ብሆን	-5149
▁እብድ	-5150
▁የሚል	-5151
▁የውጭ	-5152
▁ገበያ	-5153
▁ገንዳ	-5154
▁ፈጣን	-5155
aalli	-5156
alaan	-5157
tinaa	-5158
yyuun	-5159
▁bifa	-5160
▁took	-5161
▁መንሸራ	-5162
▁ማሳለፍ	-5163
▁ማጥፋት	-5164
▁ምልክት	-5165
▁በማለዳ	-5166
▁በባህር	-5167
▁ተጠያቂ	-5168
▁አልሰማ	-5169
ootaaf	-5170
▁oofuu	-5171
▁yaala	-5172
▁መሰለኝ።	-5173
▁መንገዱን	-5174
▁በሳምንት	-5175
▁የተለመደ	-5176
▁dhukaa	-5177
▁geessu	-5178
▁አይደለህም	-5179
▁የመጨረሻው	-5180
▁አግኝቻለሁ።	-5181
▁dhiibbaa	-5182
▁eenyuuti	-5183
▁kanarraa	-5184
▁አያስፈልግም።	-5185
▁lakkoofsi	-5186
▁dhukkubbiin	-5187
▁televijiinii	-5188
ሎት	-5189
መህ	-5190
ቦል	-5191
ነቅ	-5192
ናው	-5193
ጋጠ	-5194
ፈተ	-5195
car	-5196
ሽም።	-5197
▁ህግ	-5198
▁ማህ	-5199
▁ቢላ	-5200
▁አሮ	-5201
▁ይባ	-5202
eeyy	-5203
▁ሳምን	-5204
▁ስኳር	-5205
▁አቅር	-5206
▁አውቅ	-5207
▁ኩባያ	-5208
▁ግድግ	-5209
▁ሁኔታው	-5210
▁አረፍተ	-5211
▁የመኪና	-5212
itaara	-5213
▁baase	-5214
▁መድሃኒት	-5215
▁ማንኛውም	-5216
▁እንዳለህ	-5217
▁ajjeef	-5218
▁kamiin	-5219
▁qabame	-5220
▁ነበረበት።	-5221
▁barataa	-5222
▁dubbiin	-5223
▁gitaara	-5224
▁gorsite	-5225
▁ofumaan	-5226
▁gaazexaa	-5227
▁qaroodha	-5228
▁nyaachuun	-5229
mm	-5230
zi	-5231
ልም	-5232
ክብ	-5233
man	-5234
ማመን	-5235
ሱዋን	-5236
ስበው	-5237
ነቱን	-5238
ገኘው	-5239
▁ለወ	-5240
▁ማሽ	-5241
▁አቆ	-5242
▁አጎ	-5243
▁የህ	-5244
▁ያዝ	-5245
gaan	-5246
ሳለች።	-5247
▁መጻፍ	-5248
▁መጽሃ	-5249
▁እህት	-5250
▁የትም	-5251
aayil	-5252
▁adaa	-5253
▁ለማወቅ	-5254
▁dhiir	-5255
▁walal	-5256
▁አልነበር	-5257
▁barruu	-5258
▁kolfaa	-5259
▁intalli	-5260
▁qabadhu	-5261
▁yaaddaa	-5262
▁daandiin	-5263
▁mallattoo	-5264
▁yoomiitti	-5265
▁qabadheera	-5266
▁barumsaatti	-5267
ምጃ	-5268
ደገ	-5269
ፖር	-5270
aga	-5271
ምንም	-5272
ቀድሞ	-5273
ቱንም	-5274
▁ማዕ	-5275
▁ሱቅ	-5276
▁ባይ	-5277
▁አወ	-5278
▁እቆ	-5279
▁ከሚ	-5280
ዎትም።	-5281
▁paa	-5282
▁መኝታ	-5283
▁ማብራ	-5284
▁ተራራ	-5285
▁ነሽ።	-5286
amuun	-5287
ርስቲያን	-5288
▁faal	-5289
▁kall	-5290
▁ልረዳህ	-5291
▁ሥራውን	-5292
▁ንግግር	-5293
▁እንገና	-5294
▁የበረዶ	-5295
▁ይመልከ	-5296
▁baane	-5297
▁ollaa	-5298
▁roobu	-5299
▁xuraa	-5300
▁በጥንቃቄ	-5301
▁አውቶቡሱ	-5302
▁እራስህን	-5303
▁እንሂድ።	-5304
▁እንዲሆን	-5305
▁እንዳንተ	-5306
▁እየጠበቅ	-5307
▁ይወዳሉ።	-5308
▁dubbii	-5309
▁turtee	-5310
▁በአትክልቱ	-5311
attoonni	-5312
▁kunooti	-5313
▁እናውቃለን።	-5314
▁biraatti	-5315
▁cirracha	-5316
▁dubbisuun	-5317
▁jijjiiruu	-5318
▁jiraachaa	-5319
▁fudhachuuf	-5320
ሩህ	-5321
ዣው	-5322
ይና	-5323
ጹህ	-5324
ናደድ	-5325
▁30	-5326
▁aa	-5327
▁ሀይ	-5328
▁ማለ	-5329
▁ቀስ	-5330
▁ጎረ	-5331
▁loo	-5332
▁በራሴ	-5333
▁በተለ	-5334
▁አቀረ	-5335
▁ውሾች	-5336
▁ያስደ	-5337
▁ይደር	-5338
▁ዶክተ	-5339
▁ጣቢያ	-5340
ንግሊዝኛ	-5341
▁hirk	-5342
▁turu	-5343
▁ሁለተኛ	-5344
▁ለአንተ	-5345
▁ማብሰል	-5346
▁ሰጠኝ።	-5347
▁እርምጃ	-5348
▁እሱዋም	-5349
▁ክብደት	-5350
▁የማይታ	-5351
ችኹዋለሁ።	-5352
▁deegg	-5353
▁jirru	-5354
▁kudur	-5355
▁rasaa	-5356
▁አይችሉም	-5357
▁አደረገ።	-5358
▁argina	-5359
▁dhiisi	-5360
▁filadha	-5361
▁gammade	-5362
▁achumaan	-5363
▁ilaalcha	-5364
▁raadiyoo	-5365
▁sanaatti	-5366
▁barbaadan	-5367
▁barbaannu	-5368
▁jiraachuun	-5369
▁sirreessuu	-5370
ቀበ	-5371
ቀኝ	-5372
ተን	-5373
ካኝ	-5374
ይዝ	-5375
▁Y	-5376
ቀዝቀ	-5377
▁ሂሳ	-5378
▁ለሰ	-5379
▁መቶ	-5380
▁ተነ	-5381
▁ተጣ	-5382
▁ጠር	-5383
▁ጥር	-5384
▁በሚያ	-5385
▁ያውቅ	-5386
▁ድልድ	-5387
shiin	-5388
▁2:30	-5389
▁ብስክሌ	-5390
▁አማራጭ	-5391
▁የሆነው	-5392
▁የሚሆን	-5393
▁የትርፍ	-5394
▁ደረሰ።	-5395
▁sirna	-5396
ataatti	-5397
fachiis	-5398
▁beeknu	-5399
▁gochaa	-5400
▁kanatu	-5401
▁kollee	-5402
▁qabxii	-5403
▁turuun	-5404
▁አደርጋለሁ	-5405
▁እያንዳንዱ	-5406
▁argamuun	-5407
▁sukkaara	-5408
▁keenyayyuu	-5409
▁hatattamaan	-5410
ለከ	-5411
ስቶ	-5412
በ።	-5413
ንኩ	-5414
ዞር	-5415
ያየ	-5416
ጻፈ	-5417
kti	-5418
ለመደ	-5419
ረጋጋ	-5420
ሸንፍ	-5421
ናንተ	-5422
ይወቴ	-5423
▁ራሴ	-5424
▁ባት	-5425
▁ብን	-5426
▁ንፋ	-5427
▁ወለ	-5428
▁ጠላ	-5429
ikii	-5430
otaa	-5431
▁ham	-5432
▁መሮጥ	-5433
▁በታች	-5434
▁ከማን	-5435
▁ወታደ	-5436
xaxaa	-5437
▁kuma	-5438
▁በከተማ	-5439
▁አስቀም	-5440
▁አእምሮ	-5441
▁ወንድም	-5442
▁የተሞላ	-5443
▁ይገባል	-5444
▁bidir	-5445
▁faarf	-5446
▁ትሄዳለህ	-5447
▁እንቁላል	-5448
▁ፈተናውን	-5449
▁አይሆንም።	-5450
▁እንዳደርግ	-5451
▁ከትምህርት	-5452
▁argamne	-5453
▁carraaq	-5454
▁dhumaaf	-5455
▁kennine	-5456
▁nyaadhe	-5457
▁amanamaa	-5458
▁hiriyaan	-5459
▁hojjetan	-5460
▁dhugumatti	-5461
▁tiraafikaa	-5462
▁xiyyeeffannoo	-5463
lo	-5464
መቱ	-5465
ብቅ	-5466
ኖረ	-5467
ካሽ	-5468
ጋግ	-5469
ፍር	-5470
itu	-5471
ባከን	-5472
ጨረቃ	-5473
▁on	-5474
▁oo	-5475
▁መጨ	-5476
▁ስኬ	-5477
▁ነች	-5478
▁ጀም	-5479
▁ጻፍ	-5480
tima	-5481
ቸዋል።	-5482
▁but	-5483
▁ምስጢ	-5484
▁ተቀመ	-5485
▁ትሰራ	-5486
▁ሄድኩ።	-5487
▁ለሁለት	-5488
▁ልዩነት	-5489
▁ማጥናት	-5490
▁ተቀመጥ	-5491
▁እየበላ	-5492
▁ወረቀት	-5493
▁ዝርዝር	-5494
▁የሚችል	-5495
▁የቅርብ	-5496
aachuu	-5497
ibaati	-5498
▁afeer	-5499
▁badaa	-5500
▁yaalu	-5501
▁dhuftu	-5502
▁ruuzii	-5503
▁sadiif	-5504
▁ሰርቻለሁ።	-5505
▁ታውቃለህ።	-5506
▁እንደሚያስ	-5507
▁jirutti	-5508
▁kanarra	-5509
▁simbirr	-5510
▁አልፈለኩም።	-5511
▁የሚያስፈልገ	-5512
▁gaafadha	-5513
▁isaaniif	-5514
▁kaffaluu	-5515
▁muuziyee	-5516
▁sagantaa	-5517
▁dhalootaa	-5518
▁akaakayyuun	-5519
▁ulfaataadha	-5520
▁waliigaltee	-5521
gu	-5522
ኮች	-5523
ይዛ	-5524
ዮች	-5525
ገቡ	-5526
ጽሀ	-5527
ሆንክ	-5528
ለዋል	-5529
ገኝህ	-5530
▁ማረ	-5531
▁ስጋ	-5532
▁በኮ	-5533
▁ያዙ	-5534
▁ፍሬ	-5535
ናግርህ	-5536
ዘጋጀት	-5537
▁ምላሽ	-5538
▁አሉኝ	-5539
▁አራት	-5540
▁የገባ	-5541
iinsa	-5542
ፌያለሁ።	-5543
▁fayy	-5544
▁saax	-5545
▁ቀጠለ።	-5546
▁በፓርኩ	-5547
▁አንዱን	-5548
▁አደርገ	-5549
▁እንዳታ	-5550
▁እወስዳ	-5551
▁የወንድ	-5552
▁aduun	-5553
▁lakki	-5554
▁ረሳሁት።	-5555
▁ታስባለህ	-5556
▁እንደምታ	-5557
▁ይሻላል።	-5558
▁godhan	-5559
▁jajjab	-5560
▁turtan	-5561
▁ለመጀመሪያ	-5562
▁አለባቸው።	-5563
▁ይበልጣል።	-5564
▁ammatti	-5565
▁አይሰማኝም።	-5566
▁doktarri	-5567
▁dubbannu	-5568
▁hangamii	-5569
▁tikeetii	-5570
▁walxaxaa	-5571
▁fincaanii	-5572
▁gammachiisaa	-5573
ለቲ	-5574
መኛ	-5575
ታተ	-5576
ንታ	-5577
የ።	-5578
ያት	-5579
ter	-5580
ለብስ	-5581
▁it	-5582
▁ከብ	-5583
▁ዝቅ	-5584
▁ዝና	-5585
▁ያኔ	-5586
▁ጎዳ	-5587
imni	-5588
ህንነት	-5589
ለህም።	-5590
▁kil	-5591
▁ለማሳ	-5592
▁መፍት	-5593
▁በኩል	-5594
▁ተገኝ	-5595
▁ትልቁ	-5596
▁ክፍሌ	-5597
▁ያነሰ	-5598
▁ደስታ	-5599
▁ጥፋት	-5600
atamu	-5601
tonni	-5602
▁mata	-5603
▁መደብር	-5604
▁እራሱን	-5605
▁ውሻውን	-5606
attiin	-5607
▁cimee	-5608
▁dhimm	-5609
▁farda	-5610
▁haroo	-5611
▁የምኖረው	-5612
▁ይመስላች	-5613
▁murtii	-5614
▁nyaate	-5615
▁ኮምፒውተር	-5616
▁የለብህም።	-5617
▁argadha	-5618
▁dhaqeen	-5619
▁ilaalle	-5620
▁አይደለንም።	-5621
▁jeequmsa	-5622
▁agarsiise	-5623
▁konsartii	-5624
▁haasofsiisuu	-5625
ሌጅ	-5626
ቁት	-5627
ካማ	-5628
ካን	-5629
ኳይ	-5630
ያዙ	-5631
ዳር	-5632
ጠሩ	-5633
ጡን	-5634
▁ቻ	-5635
noo	-5636
ምስት	-5637
ሰማህ	-5638
ዝቦል	-5639
▁ምኞ	-5640
▁ስጠ	-5641
▁ቀለ	-5642
▁በድ	-5643
▁ቸኮ	-5644
▁ናፍ	-5645
▁እጄ	-5646
▁ከበ	-5647
▁ካለ	-5648
▁ዘፈ	-5649
▁ጠበ	-5650
ሰብኩም	-5651
በታል።	-5652
ቶኛል።	-5653
ፈልጉት	-5654
▁kii	-5655
▁ስምም	-5656
▁በሆነ	-5657
▁አቅም	-5658
▁የሚቆ	-5659
▁ደረሰ	-5660
eenyi	-5661
eessu	-5662
oofne	-5663
▁falm	-5664
▁suph	-5665
▁taan	-5666
▁ለመማር	-5667
▁ልጃገረ	-5668
▁ማንሳት	-5669
▁ተጫዋች	-5670
▁አልሆነ	-5671
▁ከጥቂት	-5672
▁ከፈለጉ	-5673
▁ዘግይቶ	-5674
▁የተሰራ	-5675
▁cabse	-5676
▁gurra	-5677
▁qaroo	-5678
▁samii	-5679
▁shaak	-5680
▁sirra	-5681
▁አስቀድሞ	-5682
▁እየፈለግ	-5683
▁የምችለው	-5684
▁sarara	-5685
▁tajaaj	-5686
▁ummata	-5687
▁ምክንያታዊ	-5688
▁በትምህርት	-5689
▁አላሰብኩም	-5690
▁የማርያምን	-5691
▁የማደርገው	-5692
▁wallaal	-5693
▁dubbattu	-5694
▁qorannoo	-5695
▁sooressa	-5696
▁fakkaataa	-5697
▁isheetiin	-5698
▁keenyatti	-5699
▁gaafachuuf	-5700
pe	-5701
qo	-5702
ራይ	-5703
ብዛ	-5704
አይ	-5705
ኸኝ	-5706
ዘው	-5707
ዳን	-5708
▁N	-5709
sib	-5710
በላው	-5711
ገሩ።	-5712
▁መጋ	-5713
▁ተብ	-5714
▁አነ	-5715
▁እዛ	-5716
▁እጁ	-5717
▁ዘጋ	-5718
▁የቴ	-5719
▁የዋ	-5720
toob	-5721
uroo	-5722
ለዋል።	-5723
ንሰርቱ	-5724
የኝም።	-5725
▁ንጹህ	-5726
▁አለን	-5727
▁የአው	-5728
▁ይደው	-5729
▁ይገር	-5730
▁ጥገና	-5731
eensi	-5732
▁cabe	-5733
▁መነጽር	-5734
▁ትናገራ	-5735
▁አሳለፍ	-5736
▁lafaa	-5737
▁qacar	-5738
▁siyaa	-5739
▁ቀድሞውኑ	-5740
▁ትወዳለህ	-5741
▁amanne	-5742
▁argame	-5743
▁bittaa	-5744
▁poolis	-5745
▁seerri	-5746
▁ትወዳለች።	-5747
▁አልቁዋል።	-5748
▁beeysib	-5749
▁miidhaa	-5750
▁amanachuu	-5751
▁dandeessi	-5752
▁dubbachaa	-5753
▁fayyadama	-5754
▁kolleejjii	-5755
▁gammachiisu	-5756
ገደ	-5757
ፋሪ	-5758
▁4	-5759
ራቢያ	-5760
ትንሽ	-5761
ቸዋል	-5762
ናገሩ	-5763
ንያው	-5764
ክምና	-5765
▁ለት	-5766
▁ኢን	-5767
▁የቡ	-5768
▁ጫጫ	-5769
okol	-5770
ገናኘት	-5771
▁gad	-5772
▁oom	-5773
▁ቀጠሮ	-5774
▁ባህር	-5775
▁ብቃት	-5776
▁ተጫው	-5777
▁ነፋሱ	-5778
▁እሆና	-5779
▁ፈረስ	-5780
isuun	-5781
▁baga	-5782
▁መከላከ	-5783
▁ሳይቆይ	-5784
▁በጉጉት	-5785
▁ተመልሶ	-5786
▁አጋጥሞ	-5787
▁የለኝም	-5788
▁ያለብህ	-5789
tukaan	-5790
▁chaay	-5791
▁kamtu	-5792
▁kanan	-5793
▁wanta	-5794
▁yaali	-5795
▁yakka	-5796
▁አልነገር	-5797
▁ከፈለግክ	-5798
▁ይወስዳል	-5799
▁saanii	-5800
▁ibiddaa	-5801
▁nyaadha	-5802
▁እንድታደርግ	-5803
▁agarsiif	-5804
▁dhukaasa	-5805
▁ይመስላችኹዋል	-5806
▁injifachuu	-5807
▁amanamummaa	-5808
ሎቹ	-5809
መጡ	-5810
ሮፓ	-5811
ዘዘ	-5812
ፈጸ	-5813
ለፊያ	-5814
ብስክ	-5815
ንቀቅ	-5816
ከሰተ	-5817
ከንድ	-5818
ዟል።	-5819
ዳመጥ	-5820
▁ሂድ	-5821
▁ማም	-5822
▁በነ	-5823
▁ይል	-5824
yoon	-5825
መለከተ	-5826
ብኝም።	-5827
ታችንን	-5828
ቸውም።	-5829
▁haq	-5830
▁sek	-5831
▁ቢላዋ	-5832
▁ባለሙ	-5833
▁ትኩስ	-5834
▁አትፍ	-5835
▁አውጥ	-5836
▁አይነ	-5837
▁እመክ	-5838
▁እሞክ	-5839
▁ክፍያ	-5840
tutti	-5841
▁abda	-5842
▁fide	-5843
▁መቀመጥ	-5844
▁መደወል	-5845
▁መጀመር	-5846
▁አንዳን	-5847
▁እናንተ	-5848
▁ይህንኑ	-5849
▁urjii	-5850
▁የማይቻል	-5851
▁ይገባል።	-5852
▁chokol	-5853
▁ማስተካከል	-5854
▁ትችላላችሁ	-5855
▁walaloo	-5856
▁አመሰግናለሁ	-5857
▁qabnedha	-5858
▁waraanni	-5859
▁እናደርጋለን።	-5860
▁akkaataan	-5861
▁jaalalaan	-5862
▁barattoota	-5863
▁fuulduratti	-5864
▁beeysiboolii	-5865
ኗል	-5866
ደሩ	-5867
ጎብ	-5868
ፋው	-5869
jek	-5870
sti	-5871
ሰበ።	-5872
ሰጥህ	-5873
ቁረጥ	-5874
ዝናና	-5875
ደደ።	-5876
ፋል።	-5877
▁ማቆ	-5878
▁ቃላ	-5879
▁እሆ	-5880
▁ከስ	-5881
▁ክሬ	-5882
ፓርታማ	-5883
▁ሙዚየ	-5884
▁ሥዕል	-5885
▁ሬዲዮ	-5886
▁ሸሚዝ	-5887
▁ሻወር	-5888
▁ኃላፊ	-5889
▁አሳይ	-5890
▁አበባ	-5891
▁እሰማ	-5892
▁እድሜ	-5893
▁የተቻ	-5894
▁ገናን	-5895
▁ጠርሙ	-5896
▁ጨካኝ	-5897
▁mich	-5898
▁piro	-5899
▁ይመለከ	-5900
▁ፈለገ።	-5901
baatti	-5902
teetti	-5903
zidaan	-5904
▁ajaja	-5905
▁በስተቀር	-5906
▁ተውኩት።	-5907
▁እሆናለሁ	-5908
▁dhiisu	-5909
▁ittiin	-5910
▁xumura	-5911
▁ሁለታችንም	-5912
▁በመጀመሪያ	-5913
▁አታውቅም።	-5914
▁አትፈልግም	-5915
▁እሆናለሁ።	-5916
▁እንዳለብን	-5917
▁የፈረንሳይ	-5918
▁dubbise	-5919
▁jedhama	-5920
▁keetiin	-5921
▁taasisa	-5922
▁አይደለችም።	-5923
▁እንደምትችል	-5924
▁የመጀመሪያው	-5925
▁dogoggor	-5926
▁dubbatin	-5927
▁gaaffiin	-5928
▁bilbilaan	-5929
▁burtukaan	-5930
▁dhaabbate	-5931
▁qabaachuun	-5932
▁dogoggoraan	-5933
▁bilcheessuun	-5934
▁mirkaneessuu	-5935
▁obomboleettii	-5936
ምሩ	-5937
ንጀ	-5938
ዘዝ	-5939
ጓዴ	-5940
ጩኸ	-5941
ጮህ	-5942
▁6	-5943
▁ቼ	-5944
ger	-5945
iir	-5946
ሊዮን	-5947
ሌክት	-5948
ፎችን	-5949
▁መካ	-5950
▁ቀል	-5951
▁ኃይ	-5952
▁ከዛ	-5953
▁ክራ	-5954
▁ዳቦ	-5955
ረንጓዴ	-5956
▁bad	-5957
▁fee	-5958
▁sak	-5959
▁uww	-5960
▁ሌሊት	-5961
▁ልምድ	-5962
▁ሚስት	-5963
▁ርካሽ	-5964
▁ቆመ።	-5965
▁በቤተ	-5966
▁እኛን	-5967
▁እወድ	-5968
▁ወዴት	-5969
ondii	-5970
ናገርም።	-5971
▁erge	-5972
▁kaaf	-5973
▁moot	-5974
▁ለጥቂት	-5975
▁መፍትሄ	-5976
▁አሉን።	-5977
▁እስማማ	-5978
▁የሚገር	-5979
▁ይመጣል	-5980
▁ይወዳል	-5981
varsii	-5982
▁dhugu	-5983
▁iskii	-5984
▁umrii	-5985
▁ለመብላት	-5986
▁ንገረኝ።	-5987
▁አልፈለገ	-5988
▁ደቂቃዎች	-5989
▁awuroo	-5990
▁hoggan	-5991
▁jennee	-5992
▁መንሸራተት	-5993
▁duubaan	-5994
▁gammadu	-5995
▁manatti	-5996
▁pirojek	-5997
▁waajjir	-5998
▁yookaan	-5999
▁dhumeera	-6000
▁nyaachis	-6001
▁በአውስትራሊያ	-6002
▁barsiisuu	-6003
▁kudhaniin	-6004
▁qabaadhee	-6005
▁maariyaamiif	-6006
19	-6007
ed	-6008
ለጥ	-6009
ረኛ	-6010
ስቸ	-6011
ቃል	-6012
ቲክ	-6013
ታይ	-6014
ጮች	-6015
ፉት	-6016
ፊቱ	-6017
hin	-6018
kni	-6019
ሳለህ	-6020
ቸውም	-6021
ወሰድ	-6022
▁ለሌ	-6023
▁በጀ	-6024
▁ነፍ	-6025
teen	-6026
ኹዋት።	-6027
▁ለመጠ	-6028
▁ምስል	-6029
▁ተጠም	-6030
▁ታማኝ	-6031
▁ትመጣ	-6032
▁ናፈቀ	-6033
▁አልታ	-6034
▁አስቆ	-6035
▁አጥብ	-6036
▁እገባ	-6037
▁የተከ	-6038
▁ያስተ	-6039
▁ጥንድ	-6040
▁ጸሀይ	-6041
▁ብርሃን	-6042
▁አላቸው	-6043
▁ዕረፍት	-6044
▁የምችል	-6045
atamuu	-6046
atanii	-6047
▁aarii	-6048
▁beell	-6049
▁hawwa	-6050
▁kaase	-6051
▁መብራቱን	-6052
▁ሳምንታት	-6053
▁ነበርን።	-6054
▁የሚያምር	-6055
▁ያደረገው	-6056
▁ይቻላል።	-6057
▁galata	-6058
▁kabaja	-6059
kkeettii	-6060
▁ifaadha	-6061
▁jiraate	-6062
▁magarii	-6063
▁xumuruu	-6064
▁fudhannu	-6065
▁dhiheesse	-6066
▁hayyamamu	-6067
▁hiyyeessa	-6068
▁mudateera	-6069
▁agarsiisuu	-6070
▁jaallattan	-6071
▁kofalchiisu	-6072
▁nuffisiisaa	-6073
▁dhukkubsattee	-6074
ቢሮ	-6075
ቨር	-6076
ነቃ	-6077
ንባ	-6078
ኖሚ	-6079
ኩኝ	-6080
ክም	-6081
ገስ	-6082
ጤን	-6083
ጦች	-6084
ጧል	-6085
ጫው	-6086
ሃለሁ	-6087
ሰጠኝ	-6088
ብስብ	-6089
ከተል	-6090
▁ላለ	-6091
▁ሰረ	-6092
▁ስቴ	-6093
▁ብዕ	-6094
▁የሕ	-6095
inee	-6096
lfii	-6097
መልከት	-6098
▁ለመዋ	-6099
▁ቤቶች	-6100
▁እየደ	-6101
▁ይረዳ	-6102
▁ጀልባ	-6103
▁ገዛ።	-6104
iizaa	-6105
ቼዋለሁ።	-6106
▁baat	-6107
▁boba	-6108
▁diin	-6109
▁joon	-6110
▁paas	-6111
▁መምህሩ	-6112
▁ሰከንድ	-6113
▁አበቦች	-6114
▁አንዲት	-6115
▁እፈልግ	-6116
▁የባህር	-6117
▁ያስታው	-6118
annaan	-6119
▁ብሉዋል።	-6120
▁አልወደው	-6121
▁አረንጓዴ	-6122
▁argite	-6123
▁መንከባከብ	-6124
▁በስብሰባው	-6125
▁አደረግሁ።	-6126
▁barumsi	-6127
▁deemtee	-6128
▁dhugaan	-6129
▁hubanne	-6130
▁jalatti	-6131
▁saffisa	-6132
▁sakatta	-6133
▁ትመስላለች።	-6134
▁sekondii	-6135
▁xumuruuf	-6136
▁የምትፈልገውን	-6137
▁chaayinaa	-6138
▁dandeessan	-6139
▁kompiitara	-6140
▁bilcheessuu	-6141
▁buufataatti	-6142
▁keessanitti	-6143
13	-6144
ሹን	-6145
ሻው	-6146
ባበ	-6147
ቤቱ	-6148
ብረ	-6149
ኑ።	-6150
ድጓ	-6151
ፐር	-6152
ibu	-6153
raw	-6154
ለት።	-6155
ራችሁ	-6156
ቃላይ	-6157
▁ለሚ	-6158
▁ማል	-6159
▁ስሙ	-6160
▁ሽታ	-6161
▁አፈ	-6162
▁ውስ	-6163
▁ውሸ	-6164
▁የኢ	-6165
▁ይሰ	-6166
▁ጸጥ	-6167
▁ፈጅ	-6168
kkaa	-6169
ፈጠረው	-6170
▁ele	-6171
▁pil	-6172
▁ለመክ	-6173
▁ለእር	-6174
▁መያዝ	-6175
▁በሽታ	-6176
▁ነው፣	-6177
▁ነጥብ	-6178
▁ይሁን	-6179
▁ደካማ	-6180
isuuf	-6181
▁cufe	-6182
▁fida	-6183
▁haqa	-6184
▁ibsi	-6185
▁kute	-6186
▁lola	-6187
▁malu	-6188
▁qaal	-6189
▁መጨረስ	-6190
▁በተሻለ	-6191
▁የነገር	-6192
▁ያልሆነ	-6193
▁ይኖራል	-6194
▁ዳግመኛ	-6195
▁ድመቶች	-6196
▁ጫማዎች	-6197
▁baatu	-6198
▁boona	-6199
▁boqqo	-6200
▁lamaa	-6201
▁tolle	-6202
▁ሁለቱንም	-6203
▁ለመረዳት	-6204
▁እየሰራሁ	-6205
▁ያድርጉ።	-6206
▁beekan	-6207
▁eeguun	-6208
▁ifatti	-6209
▁qamisa	-6210
▁በማንኛውም	-6211
▁እንደሚሰራ	-6212
▁amantaa	-6213
▁saawwan	-6214
▁seeraan	-6215
▁አይታየኝም።	-6216
▁ayyaanni	-6217
▁deebitee	-6218
▁furmaata	-6219
▁jaalalaa	-6220
▁እንደምትፈልግ	-6221
qi	-6222
ሪካ	-6223
ራበ	-6224
ቀዘ	-6225
ኮራ	-6226
ውል	-6227
ዘር	-6228
ዙን	-6229
ጉ።	-6230
dde	-6231
ነው።	-6232
ንግድ	-6233
ጥጥር	-6234
▁መሀ	-6235
▁ምት	-6236
▁ሞት	-6237
▁ሰክ	-6238
▁በጸ	-6239
▁ከጎ	-6240
▁ካና	-6241
eell	-6242
ፈዋል።	-6243
▁በቁም	-6244
▁ንግድ	-6245
▁አሥር	-6246
▁አባቱ	-6247
▁አየሩ	-6248
▁እሰጥ	-6249
▁ከአው	-6250
▁የተመ	-6251
eetti	-6252
▁galu	-6253
▁kraw	-6254
▁pire	-6255
▁ለእራት	-6256
▁አድርግ	-6257
▁ከወላጆ	-6258
▁ክፍሉን	-6259
▁ዜናውን	-6260
▁የሚገባ	-6261
▁ያስከፍ	-6262
▁ድንጋይ	-6263
▁galma	-6264
▁marga	-6265
▁ለመድረስ	-6266
▁ማብራሪያ	-6267
▁የሚያውቅ	-6268
▁awwaal	-6269
▁bahuun	-6270
▁darbuu	-6271
▁ibiddi	-6272
▁ለማንኛውም	-6273
▁እንዳለብህ	-6274
▁ደርሱዋል።	-6275
▁biratti	-6276
▁dhuftee	-6277
▁duratti	-6278
▁ilaalte	-6279
▁እንደሚፈልግ	-6280
▁deebisuu	-6281
▁fudhanne	-6282
▁xalayaan	-6283
▁xumurame	-6284
▁አስታውሳለሁ።	-6285
▁boqqolloo	-6286
▁bishaaniin	-6287
▁dabalataan	-6288
▁fudhachuun	-6289
▁pirezidaan	-6290
▁dhaggeeffachuu	-6291
ቀይ	-6292
ባ።	-6293
ቦት	-6294
ንዙ	-6295
ካት	-6296
ዘፍ	-6297
ድግ	-6298
ጥረ	-6299
ጭን	-6300
▁ቪ	-6301
loo	-6302
ton	-6303
ምህር	-6304
ቻቸው	-6305
ጠብቁ	-6306
ፖሊስ	-6307
▁ልማ	-6308
▁ሕፃ	-6309
▁ማሰ	-6310
▁ሹፌ	-6311
▁በቡ	-6312
▁ብላ	-6313
▁ኩኪ	-6314
▁ወጪ	-6315
▁ዘዴ	-6316
reen	-6317
ቁዋረጥ	-6318
▁bab	-6319
▁gag	-6320
▁xix	-6321
▁ለእሱ	-6322
▁ሊነግ	-6323
▁መርከ	-6324
▁መጓዝ	-6325
▁ሳንቲ	-6326
▁ተንኮ	-6327
▁ነግሬ	-6328
▁ንፋስ	-6329
▁አይፈ	-6330
▁አገል	-6331
▁እየዘ	-6332
▁ዘመን	-6333
▁ይሆን	-6334
▁ጨለማ	-6335
chiif	-6336
dhiin	-6337
sanii	-6338
ደርግም።	-6339
▁bubb	-6340
▁hate	-6341
▁maam	-6342
▁mars	-6343
▁milk	-6344
▁መልቀቅ	-6345
▁መራመድ	-6346
▁መንቀጥ	-6347
▁ማቆሚያ	-6348
▁በባቡር	-6349
▁ብቻህን	-6350
▁እየሄደ	-6351
▁ከመሄድ	-6352
▁ወደቀ።	-6353
▁የአካል	-6354
▁ጥፋተኛ	-6355
eetiin	-6356
▁bunni	-6357
▁fufuu	-6358
▁jabaa	-6359
▁kilab	-6360
▁safuu	-6361
▁ላናግርህ	-6362
▁በመንገድ	-6363
▁አድርግ።	-6364
▁እንዲሄድ	-6365
▁እንድሄድ	-6366
▁baasee	-6367
▁deemin	-6368
▁hirmaa	-6369
▁መከረችው።	-6370
▁እንድትሄድ	-6371
▁argattu	-6372
▁burjaaj	-6373
▁kireeff	-6374
▁kopheen	-6375
▁meetira	-6376
▁taphata	-6377
▁uffanni	-6378
▁አላገኘሁም።	-6379
▁አውቀዋለሁ።	-6380
▁beekamaa	-6381
▁chaappaa	-6382
▁jedhanii	-6383
▁kamiinuu	-6384
▁kanaadaa	-6385
▁kufaatii	-6386
▁miillaan	-6387
▁bashannan	-6388
▁kaameeraa	-6389
▁xumureera	-6390
▁tikkeettii	-6391
▁dhageessanii	-6392
aw	-6393
ላዊ	-6394
ወግ	-6395
ዳም	-6396
ጣሪ	-6397
▁ዣ	-6398
eey	-6399
nii	-6400
ለኛል	-6401
ቁዋር	-6402
ቃል።	-6403
ወስደ	-6404
ደረስ	-6405
ገተኛ	-6406
ጊዜው	-6407
ፈጥሮ	-6408
ፊያው	-6409
▁ልቦ	-6410
▁ቀበ	-6411
▁ባር	-6412
▁ትኬ	-6413
▁ነን	-6414
▁ይስ	-6415
▁ይዋ	-6416
▁ጫፍ	-6417
▁ፍን	-6418
duun	-6419
ጠራጠራ	-6420
▁haw	-6421
▁kol	-6422
▁tom	-6423
▁ለእኛ	-6424
▁እናስ	-6425
▁ዝናቡ	-6426
▁ያለህ	-6427
▁ደግሞ	-6428
▁bool	-6429
▁digd	-6430
▁kiis	-6431
▁kuuf	-6432
▁ላገኝህ	-6433
▁መሆኔን	-6434
▁መስመር	-6435
▁መበደር	-6436
▁ሚስጥር	-6437
▁ማባከን	-6438
▁በመስኮ	-6439
▁ባለሙያ	-6440
▁አይኖች	-6441
▁እንስሳ	-6442
▁እየጠበ	-6443
▁ዣንጥላ	-6444
▁የአለም	-6445
▁ይጀምራ	-6446
atamne	-6447
eessee	-6448
▁ajjee	-6449
▁arrab	-6450
▁dhuge	-6451
▁gaabb	-6452
▁kunis	-6453
▁lafti	-6454
▁ለማንበብ	-6455
▁መኪናዬን	-6456
▁እነዚያን	-6457
▁እንደማል	-6458
▁እየጨመረ	-6459
▁የሚወዱት	-6460
▁ያለብዎት	-6461
attanii	-6462
▁adeera	-6463
▁dafnee	-6464
▁deebif	-6465
▁dhibba	-6466
▁dhufan	-6467
▁fiiguu	-6468
▁qabatu	-6469
▁ተመለከተ።	-6470
▁የለብኝም።	-6471
▁ይወስዳል።	-6472
▁kaasuun	-6473
▁እንደተፈጠረ	-6474
▁agarsiisi	-6475
▁fayyadamu	-6476
▁hojjettee	-6477
▁murteessuu	-6478
▁dhaggeeffachaa	-6479
::	-6480
ለሽ	-6481
ለታ	-6482
ሩም	-6483
ርሃ	-6484
ናን	-6485
ካታ	-6486
ኮር	-6487
ወጡ	-6488
ዛኝ	-6489
ዝቡ	-6490
▁ሺ	-6491
vii	-6492
ሳተፍ	-6493
ብም።	-6494
▁ህፃ	-6495
▁ሳል	-6496
▁በታ	-6497
▁ከቁ	-6498
▁ይከ	-6499
imaa	-6500
ቻቸውን	-6501
▁ማሽን	-6502
▁ሞተ።	-6503
▁ባለው	-6504
▁አርጅ	-6505
▁አሮጌ	-6506
▁ውጤት	-6507
▁የማል	-6508
▁የስራ	-6509
▁ያዘ።	-6510
▁ጫጫታ	-6511
▁batt	-6512
▁utuu	-6513
▁መደነስ	-6514
▁ስልኩን	-6515
▁ስምህን	-6516
▁ተመልከ	-6517
▁አሰበ።	-6518
▁አዲሱን	-6519
▁ወንጀል	-6520
▁ያስባል	-6521
▁ገባሁ።	-6522
▁ጓደኞቼ	-6523
immaan	-6524
▁baate	-6525
▁ለመውጣት	-6526
▁ተመለከት	-6527
▁አፓርታማ	-6528
▁እንደሆኑ	-6529
▁beekee	-6530
▁himuun	-6531
▁idilee	-6532
▁mannaa	-6533
▁qabdan	-6534
▁ነበረብህ።	-6535
▁አብዛኛውን	-6536
▁ክርስቲያን	-6537
▁fedhiin	-6538
▁galaana	-6539
▁guddina	-6540
▁olaanaa	-6541
▁suuraan	-6542
▁ትክክለኛውን	-6543
▁አልወደውም።	-6544
▁gaggeeff	-6545
▁godhinaa	-6546
▁isaatiif	-6547
▁lamaanuu	-6548
▁አልነበርኩም።	-6549
▁fudhadhaa	-6550
▁dubartoota	-6551
▁gargaaruun	-6552
▁obomboleettiin	-6553
ሃዊ	-6554
ልን	-6555
ማል	-6556
ማን	-6557
ስበ	-6558
ታሉ	-6559
ከም	-6560
ከፊ	-6561
ኪያ	-6562
ኳኳ	-6563
▁ጌ	-6564
gii	-6565
lii	-6566
soo	-6567
መልስ	-6568
ቀላቀ	-6569
ኮኖሚ	-6570
ውያን	-6571
▁ce	-6572
▁በካ	-6573
▁በጎ	-6574
▁በጨ	-6575
▁ወዳ	-6576
▁ዕቃ	-6577
▁ዕዳ	-6578
▁ገደ	-6579
▁ሁለቱ	-6580
▁ሄዱ።	-6581
▁ልሄድ	-6582
▁በግል	-6583
▁ብሩህ	-6584
▁ተገቢ	-6585
▁አልቆ	-6586
▁አርፍ	-6587
▁አውሎ	-6588
▁አጎቴ	-6589
▁እውን	-6590
▁ከቤተ	-6591
▁የምና	-6592
▁ይሻለ	-6593
▁ይበላ	-6594
▁ጋዜጣ	-6595
▁ግምት	-6596
▁ጨርሰ	-6597
manii	-6598
▁dhib	-6599
▁haar	-6600
▁qama	-6601
▁raaf	-6602
▁መርከብ	-6603
▁መቀጠል	-6604
▁መክፈት	-6605
▁በላሁ።	-6606
▁ተበላሽ	-6607
▁እንዳላ	-6608
▁ከእሱዋ	-6609
▁ከኹዋላ	-6610
▁ያደርገ	-6611
▁ጠንክሮ	-6612
▁ጥንቃቄ	-6613
▁adeer	-6614
▁dhaqe	-6615
▁diina	-6616
▁madaa	-6617
▁waaqa	-6618
▁ተመልከት	-6619
▁አስተዋይ	-6620
▁አስቸኳይ	-6621
▁እንደሌለ	-6622
▁የሚፈልጉ	-6623
▁የማርያም	-6624
▁የነበረው	-6625
▁የአትክል	-6626
aateera	-6627
siisuuf	-6628
▁dhaqee	-6629
▁miilli	-6630
▁mindaa	-6631
▁mirgaa	-6632
▁murtaa	-6633
▁tasuma	-6634
▁እንደሚችሉ	-6635
▁የሚፈልጉት	-6636
▁ajjeese	-6637
▁baranne	-6638
▁dabalaa	-6639
▁eegalee	-6640
▁saddeet	-6641
▁soorama	-6642
▁taphatu	-6643
▁turetti	-6644
▁ulfaata	-6645
▁እሞክራለሁ።	-6646
▁የምፈልገውን	-6647
▁imimmaan	-6648
▁keessumm	-6649
▁rifeensi	-6650
▁tokkodha	-6651
▁uffachuu	-6652
▁አልነበረውም።	-6653
▁barnootaa	-6654
▁jalqabaaf	-6655
▁akkasumaan	-6656
ሪፍ	-6657
ሳም	-6658
በባ	-6659
ዩ።	-6660
ዳሚ	-6661
ጎድ	-6662
ፈ።	-6663
ፋል	-6664
▁8	-6665
ksi	-6666
መጣም	-6667
ታለሁ	-6668
ቶኪዮ	-6669
ነግር	-6670
ኩበት	-6671
ክበር	-6672
ያንዳ	-6673
ዮርክ	-6674
ጣጠር	-6675
▁ለዘ	-6676
▁መረ	-6677
▁ሥር	-6678
▁ጠራ	-6679
▁ፎቅ	-6680
faan	-6681
lakk	-6682
ዋለች።	-6683
▁abd	-6684
▁gib	-6685
▁ለመፍ	-6686
▁ሰባት	-6687
▁ሰውዬ	-6688
▁ሹራብ	-6689
▁በመቶ	-6690
▁ባንክ	-6691
▁እኩለ	-6692
▁ወንዝ	-6693
▁የገዛ	-6694
▁የግል	-6695
▁ጠፋ።	-6696
▁ጽሑፍ	-6697
▁ፖስታ	-6698
ሌክትሪክ	-6699
▁badh	-6700
▁gahu	-6701
▁lall	-6702
▁muda	-6703
▁ለመያዝ	-6704
▁መቀነስ	-6705
▁ስለሆነ	-6706
▁ስጠኝ።	-6707
▁በሦስት	-6708
▁ቢኖረኝ	-6709
▁እውነታ	-6710
▁የሚሰራ	-6711
▁ጃንጥላ	-6712
▁ፊልሞች	-6713
ooniin	-6714
▁barii	-6715
▁kukii	-6716
▁rafaa	-6717
▁ragaa	-6718
▁አስተካክ	-6719
▁እራስዎን	-6720
▁ይቅርታ።	-6721
attoota	-6722
▁ciisee	-6723
▁cimtee	-6724
▁jedhan	-6725
▁qullaa	-6726
▁xixiqq	-6727
▁ልጃገረዶች	-6728
▁ተመልከት።	-6729
▁የትምህርት	-6730
▁ያደርጋል።	-6731
▁ያድርጉት።	-6732
▁ይፈልጋሉ።	-6733
▁ደብዳቤውን	-6734
atteetti	-6735
▁adeerri	-6736
▁bitatte	-6737
▁cufamee	-6738
▁hundaan	-6739
▁kaayyoo	-6740
▁keenyaa	-6741
▁beellama	-6742
▁caaludha	-6743
▁hammaataa	-6744
▁konkolaat	-6745
▁shubbisuu	-6746
▁awurooppaa	-6747
▁baradheera	-6748
▁jijjiirame	-6749
▁xiyyeeffannaa	-6750
መታ	-6751
ባቴ	-6752
ክሰ	-6753
ጣጠ	-6754
ፏል	-6755
ibe	-6756
ምንቱ	-6757
ስተዋ	-6758
ባል።	-6759
ብኝ።	-6760
ኳት።	-6761
ገናኝ	-6762
▁pi	-6763
▁ህመ	-6764
▁ማራ	-6765
▁ብል	-6766
▁ዘፋ	-6767
▁ጓጉ	-6768
▁ጮኸ	-6769
▁ጸሀ	-6770
▁ፓስ	-6771
▁ፕሬ	-6772
atni	-6773
ሄድበት	-6774
ሰብኩት	-6775
ኹዋል።	-6776
ጣለች።	-6777
ፈራም።	-6778
▁lif	-6779
▁ስለእ	-6780
▁በውሃ	-6781
▁በየአ	-6782
▁ተሰር	-6783
▁አመለ	-6784
▁እርዳ	-6785
▁እበላ	-6786
▁እኩል	-6787
▁እጄን	-6788
▁ከክፍ	-6789
▁ውሃው	-6790
▁የተሻ	-6791
▁የወደ	-6792
▁ደረስ	-6793
▁ደርሶ	-6794
▁ፈልጎ	-6795
aanne	-6796
amiin	-6797
ataaf	-6798
iimii	-6799
ብስክሌት	-6800
▁baal	-6801
▁qoon	-6802
▁መድረስ	-6803
▁ቁልፉን	-6804
▁በተለይ	-6805
▁አሳፋሪ	-6806
▁እየመጣ	-6807
▁እደውል	-6808
▁የአንተ	-6809
▁ይንከባ	-6810
▁ጉዳዩን	-6811
▁aadaa	-6812
▁cufuu	-6813
▁oduun	-6814
▁ofuma	-6815
▁ለእርዳታ	-6816
▁hinaaf	-6817
▁waldaa	-6818
▁እንገናኝ።	-6819
▁የምችለውን	-6820
▁deemnee	-6821
▁uffadhu	-6822
▁barsiisa	-6823
▁saantima	-6824
▁tookiyoo	-6825
▁ispoortii	-6826
▁kunuunsuu	-6827
▁maallaqaa	-6828
▁shubbisaa	-6829
▁dhiyeessii	-6830
▁guutameera	-6831
▁kitaabonni	-6832
▁taphachuun	-6833
▁barreeffama	-6834
ji	-6835
ላም	-6836
ልዎ	-6837
ረስ	-6838
ራሉ	-6839
ሲቲ	-6840
ቃድ	-6841
ችኝ	-6842
ንን	-6843
ይ።	-6844
ደይ	-6845
ጋሚ	-6846
ጓዛ	-6847
▁7	-6848
▁F	-6849
▁ቱ	-6850
▁ዱ	-6851
ita	-6852
tis	-6853
ላንድ	-6854
ኒቨር	-6855
ዳል።	-6856
▁እጆ	-6857
▁ከጣ	-6858
▁ወሬ	-6859
▁ወፍ	-6860
▁ውይ	-6861
▁ያየ	-6862
▁ጆሮ	-6863
▁ጠፋ	-6864
▁ጩኸ	-6865
▁ፈራ	-6866
aamp	-6867
aguu	-6868
iree	-6869
lluu	-6870
tama	-6871
ለችም።	-6872
ላችሁ።	-6873
ታቸውን	-6874
▁100	-6875
▁vii	-6876
▁መንግ	-6877
▁ማንን	-6878
▁ስሙን	-6879
▁ቁልፎ	-6880
▁በሌላ	-6881
▁በማየ	-6882
▁በራሱ	-6883
▁በሰማ	-6884
▁ተሸፍ	-6885
▁አምጡ	-6886
▁አሪፍ	-6887
▁አገባ	-6888
▁እስር	-6889
▁ከንቱ	-6890
▁ወንበ	-6891
▁የቀረ	-6892
▁የበዛ	-6893
▁የከፋ	-6894
▁ጡረታ	-6895
▁ጥልቅ	-6896
▁ፕሮጀ	-6897
eenyu	-6898
ኒቨርሲቲ	-6899
▁bane	-6900
▁bare	-6901
▁beel	-6902
▁daay	-6903
▁shee	-6904
▁shor	-6905
▁መልበስ	-6906
▁መንገር	-6907
▁መፈለግ	-6908
▁ማጠቢያ	-6909
▁በቅርብ	-6910
▁ቤታችን	-6911
▁ተናጋሪ	-6912
▁ታስታው	-6913
▁አስገባ	-6914
▁አንብቤ	-6915
▁አንድም	-6916
▁አደጋው	-6917
▁እጠይቃ	-6918
▁ወሰደ።	-6919
▁የጥርስ	-6920
▁ያላቸው	-6921
▁ፕሮግራ	-6922
▁baasu	-6923
▁gadda	-6924
▁paasp	-6925
▁qofti	-6926
▁weell	-6927
▁ለመመለስ	-6928
▁ለመቆየት	-6929
▁በልጅነቴ	-6930
▁በእነዚህ	-6931
▁ተንኮለኛ	-6932
▁ትዕግስት	-6933
▁አልፏል።	-6934
▁አያውቅም	-6935
▁አይሆንም	-6936
▁እየጠበቀ	-6937
▁baraar	-6938
▁boolla	-6939
▁kiisha	-6940
▁liqimf	-6941
▁nagaan	-6942
▁shakka	-6943
▁አዝኛለሁ።	-6944
▁አይደለሁም	-6945
▁ያልተለመደ	-6946
▁bidiruu	-6947
▁dhukaas	-6948
▁gurbaan	-6949
▁rakkisa	-6950
▁አልፈለገም።	-6951
▁eeggadha	-6952
▁hundarra	-6953
▁jaalanne	-6954
▁teessoon	-6955
▁yaaleera	-6956
▁አደርገዋለሁ።	-6957
▁dorgommii	-6958
▁mootummaa	-6959
▁አልነበረብኝም።	-6960
▁dhukkubsatee	-6961
he	-6962
uk	-6963
ሪስ	-6964
በለ	-6965
ባሪ	-6966
ቲቪ	-6967
ንደ	-6968
ዘም	-6969
ጋባ	-6970
ጸጸ	-6971
ሁትን	-6972
ላችን	-6973
ራመድ	-6974
ኖችን	-6975
ወድቅ	-6976
ገባት	-6977
ጌረዳ	-6978
ጽዳት	-6979
ፈጠር	-6980
▁መዘ	-6981
▁ርዕ	-6982
▁ኮት	-6983
▁የቻ	-6984
▁ይጨ	-6985
▁ግዴ	-6986
መዋል።	-6987
ቻችንን	-6988
ጎብኘት	-6989
ፈናል።	-6990
ፓርቲው	-6991
▁ለመን	-6992
▁መልሱ	-6993
▁ተሰበ	-6994
▁ተቃር	-6995
▁ተገረ	-6996
▁አምል	-6997
▁አካል	-6998
▁አወጣ	-6999
▁ከስራ	-7000
▁ዘገባ	-7001
▁የጠፋ	-7002
▁ይወጣ	-7003
▁ይጠቀ	-7004
▁ግብዣ	-7005
tanne	-7006
▁alag	-7007
▁dhoo	-7008
▁fokk	-7009
▁ለእግር	-7010
▁መረዳት	-7011
▁መቀበል	-7012
▁መቀየር	-7013
▁መነሳት	-7014
▁መፍቀድ	-7015
▁ማሸነፍ	-7016
▁ሰራተኛ	-7017
▁ስራህን	-7018
▁በአሁኑ	-7019
▁ቤዝቦል	-7020
▁ኃይለኛ	-7021
▁አታስብ	-7022
▁አይርሱ	-7023
▁ክራባት	-7024
▁የምግብ	-7025
▁ፓርቲው	-7026
aansii	-7027
ummiin	-7028
▁Yeroo	-7029
▁ajaje	-7030
▁duraa	-7031
▁galte	-7032
▁ganda	-7033
▁መጽሀፍት	-7034
▁ስምምነት	-7035
▁እንደሰራ	-7036
▁እያደረገ	-7037
▁የትራፊክ	-7038
▁ያደርጋል	-7039
▁ድንገተኛ	-7040
▁abjuun	-7041
▁argatu	-7042
▁sobduu	-7043
▁በአውቶቡስ	-7044
▁ቴሌቪዥኑን	-7045
▁አልሆነም።	-7046
▁የለብዎትም	-7047
▁የአትክልት	-7048
▁ይመስለኛል	-7049
anneerra	-7050
▁baradhe	-7051
▁fuudhuu	-7052
▁qamadii	-7053
▁sanarra	-7054
▁beeksisa	-7055
▁dhabeera	-7056
▁hordofaa	-7057
▁ingiliff	-7058
▁argateera	-7059
▁ciisichaa	-7060
▁dhangalaa	-7061
▁dulloomaa	-7062
▁gargaarsi	-7063
▁guddachaa	-7064
▁loltoonni	-7065
▁suukaneessaa	-7066
ሎጂ	-7067
ርቅ	-7068
ቅዱ	-7069
ችም	-7070
ደጋ	-7071
ጀም	-7072
luu	-7073
ሂሳብ	-7074
ላት።	-7075
ልበት	-7076
ርመን	-7077
ቱካን	-7078
▁ay	-7079
▁ልና	-7080
▁ሚስ	-7081
▁ሥጋ	-7082
▁ሳህ	-7083
▁ቀና	-7084
▁ቁር	-7085
▁በቴ	-7086
▁በች	-7087
▁ዘና	-7088
▁ደም	-7089
▁ገላ	-7090
▁ገም	-7091
alaq	-7092
izii	-7093
saaf	-7094
teef	-7095
ባለሁ።	-7096
▁tuq	-7097
▁ለመል	-7098
▁መጽሔ	-7099
▁ታምሜ	-7100
▁አታስ	-7101
▁አይቻ	-7102
▁ወለድ	-7103
▁የሰው	-7104
▁ይኖር	-7105
▁ድግስ	-7106
▁ግማሽ	-7107
ddoon	-7108
innoo	-7109
ያንዳንዱ	-7110
▁dilb	-7111
▁ሄድን።	-7112
▁በዝርዝ	-7113
▁ተስማሚ	-7114
▁አሻንጉ	-7115
▁የሚችሉ	-7116
▁የእሳት	-7117
▁የእኔን	-7118
▁ይሄዳል	-7119
eeyyee	-7120
ደርገውም።	-7121
▁aanaa	-7122
▁አቅራቢያ	-7123
▁ኮምፒውተ	-7124
▁ያስደስተ	-7125
▁ጓደኛሞች	-7126
eessaan	-7127
▁dhohin	-7128
▁funyoo	-7129
▁galchi	-7130
▁garaan	-7131
▁jiruuf	-7132
▁ነበረብን።	-7133
▁አላየሁም።	-7134
▁baasuun	-7135
▁dandama	-7136
▁dubbisa	-7137
▁hayyamu	-7138
▁dhagahuu	-7139
▁kunuunsa	-7140
▁barreessa	-7141
▁bishaanii	-7142
▁dhaabatee	-7143
▁eenyullee	-7144
▁qabachuuf	-7145
▁teenisiin	-7146
▁xiyyaarri	-7147
▁gaddisiisa	-7148
▁hojjetamuu	-7149
▁qurxummiin	-7150
▁yeroodhaan	-7151
▁daawwachuuf	-7152
▁dubartoonni	-7153
▁mirkaneeffachuu	-7154
ts	-7155
ርን	-7156
ቆት	-7157
ቦቹ	-7158
ቼው	-7159
ኩባ	-7160
ዳዩ	-7161
ግሬ	-7162
ani	-7163
ማማኝ	-7164
ረዱኝ	-7165
ራችን	-7166
ሳሳተ	-7167
ጠች።	-7168
ፈቀደ	-7169
▁ምቹ	-7170
▁ታጋ	-7171
▁እሺ	-7172
▁ከሱ	-7173
▁ይሂ	-7174
dhuu	-7175
umsi	-7176
ታለን።	-7177
ገኛል።	-7178
▁ለዚያ	-7179
▁ልጁን	-7180
▁ምሳሌ	-7181
▁ምድር	-7182
▁ሰጠ።	-7183
▁ስኬት	-7184
▁ተሰጥ	-7185
▁ተባረ	-7186
▁አስራ	-7187
▁አውቄ	-7188
▁እመጣ	-7189
▁እንዴ	-7190
▁ከመን	-7191
▁ወፎች	-7192
▁ይይዛ	-7193
iitii	-7194
lakki	-7195
▁adam	-7196
▁shaw	-7197
▁ልጆቹን	-7198
▁መምህር	-7199
▁መገመት	-7200
▁ስምንት	-7201
▁በፍቅር	-7202
▁አልሰጠ	-7203
▁አስቀመ	-7204
▁አፍንጫ	-7205
▁እምነት	-7206
▁ውሸታም	-7207
▁የለህም	-7208
▁ይውሰዱ	-7209
eessan	-7210
maanni	-7211
▁afuuf	-7212
▁buruu	-7213
▁cufaa	-7214
▁dhuga	-7215
▁garba	-7216
▁haguu	-7217
▁ማስወገድ	-7218
▁በርሳችን	-7219
▁አለባቸው	-7220
▁አመለካከ	-7221
▁እየተጫወ	-7222
▁የመጣሁት	-7223
▁የምወደው	-7224
▁የተለያዩ	-7225
▁beekam	-7226
▁eeyyee	-7227
▁jechaa	-7228
▁kolfuu	-7229
▁lamaaf	-7230
▁madaal	-7231
▁miirri	-7232
▁piizaa	-7233
▁saaxil	-7234
▁xiyyaa	-7235
▁እናድርግ።	-7236
▁እንሄዳለን	-7237
▁እንደነበረ	-7238
▁የምትወደው	-7239
▁ይመልከቱ።	-7240
▁ይመስላሉ።	-7241
▁cheezii	-7242
▁deeggar	-7243
▁dhugoom	-7244
▁jedhamu	-7245
▁nyaannu	-7246
▁nyaattu	-7247
▁riqichi	-7248
▁waggaan	-7249
▁እሰጥሃለሁ።	-7250
▁እጠብቃለሁ።	-7251
▁barattuu	-7252
▁darbeera	-7253
▁dubbadha	-7254
▁dubbatta	-7255
▁fiigicha	-7256
▁hantuuta	-7257
▁qisaases	-7258
▁viidiyoo	-7259
▁barbaaduu	-7260
▁dhiqannaa	-7261
▁fudhatama	-7262
▁magariisa	-7263
▁barbaadeen	-7264
▁buruushiin	-7265
▁gaafachuun	-7266
▁kuduraalee	-7267
▁qaxxaamuree	-7268
ss	-7269
ለቱ	-7270
ረህ	-7271
ሯን	-7272
ሰለ	-7273
ሰስ	-7274
ባቂ	-7275
ክፈ	-7276
ዚቃ	-7277
ያል	-7278
ጫካ	-7279
ፈታ	-7280
ሩም።	-7281
ራዊት	-7282
ቃት።	-7283
ቦታው	-7284
ናይት	-7285
ናደደ	-7286
ወድም	-7287
ደጋው	-7288
▁ሆን	-7289
▁ለበ	-7290
▁መና	-7291
▁ረክ	-7292
▁ሺህ	-7293
▁ነክ	-7294
▁ያም	-7295
▁ይሞ	-7296
▁ጎን	-7297
duuf	-7298
ሮፕላን	-7299
▁kib	-7300
▁yuu	-7301
▁ሊኖር	-7302
▁ሹፌር	-7303
▁ካርድ	-7304
▁የሰጠ	-7305
▁የውሻ	-7306
▁ያለፈ	-7307
▁ጤናማ	-7308
▁ጥረት	-7309
ukaat	-7310
ደርገውን	-7311
▁ciif	-7312
▁firi	-7313
▁gool	-7314
▁yeen	-7315
▁ሄዷል።	-7316
▁መልሱን	-7317
▁መንገዱ	-7318
▁መፍታት	-7319
▁ሞኝነት	-7320
▁ባለቤት	-7321
▁ብቸኛው	-7322
▁ቸኮሌት	-7323
▁ወደፊት	-7324
▁የእሱን	-7325
▁ጓደኛህ	-7326
▁ጭንቅላ	-7327
▁ጽጌረዳ	-7328
arreen	-7329
iyoona	-7330
▁cidha	-7331
▁dafii	-7332
▁godhi	-7333
▁marii	-7334
▁uwwif	-7335
▁መገናኘት	-7336
▁በርሳቸው	-7337
▁ትሆናለህ	-7338
▁አላደረገ	-7339
▁አስቆራጭ	-7340
▁አይደሉም	-7341
▁እንዳለው	-7342
▁እየሰራህ	-7343
▁የሚለውን	-7344
▁የሚያስደ	-7345
▁ደንቦቹን	-7346
▁battal	-7347
▁beekaa	-7348
▁gamoon	-7349
▁hiikuu	-7350
▁hubatu	-7351
▁kaasuu	-7352
▁tulluu	-7353
▁warqee	-7354
▁በብስክሌት	-7355
▁አለብዎት።	-7356
▁አሳለፍኩ።	-7357
▁አውሮፕላን	-7358
▁ዘግይቱዋል	-7359
▁ይመስልሃል	-7360
▁ጠየቅኩት።	-7361
▁ጨርሻለሁ።	-7362
▁abukaat	-7363
▁argatta	-7364
▁dhalate	-7365
▁dhiigaa	-7366
▁goolfii	-7367
▁kaansar	-7368
▁qorichi	-7369
▁yaaleen	-7370
▁በእንግሊዝኛ	-7371
▁እጠይቃለሁ።	-7372
▁የሚፈልጉትን	-7373
▁ፈረንሳይኛን	-7374
▁baaburaa	-7375
▁hordofuu	-7376
▁keenyaaf	-7377
▁tilmaame	-7378
▁dhukkubni	-7379
▁fakkaattu	-7380
▁hogganaan	-7381
▁jaallatta	-7382
▁krawattii	-7383
▁waajjirri	-7384
▁akaakayyuu	-7385
▁bitadheera	-7386
▁carraaqqii	-7387
▁fakkaachuu	-7388
▁tilmaamuun	-7389
▁akeekkachiis	-7390
ሊን	-7391
መነ	-7392
ረጀ	-7393
ራሲ	-7394
ሳቅ	-7395
ቃጠ	-7396
ናይ	-7397
ኩሽ	-7398
ኪስ	-7399
ያዘ	-7400
ግና	-7401
ጣው	-7402
▁ቫ	-7403
wii	-7404
ሁን።	-7405
ካባቢ	-7406
ወያይ	-7407
ዘገየ	-7408
ዝቃዜ	-7409
ጋገብ	-7410
▁lo	-7411
▁un	-7412
▁ተይ	-7413
▁ያቺ	-7414
▁ጥሪ	-7415
rraa	-7416
መኛል።	-7417
▁ሊያስ	-7418
▁ሜትር	-7419
▁ቀጭን	-7420
▁በአጠ	-7421
▁ብቸኛ	-7422
▁ተብሎ	-7423
▁ተጠቅ	-7424
▁ተጨን	-7425
▁አባል	-7426
▁እጆች	-7427
▁ወረቀ	-7428
▁ዘፋኝ	-7429
▁ይመር	-7430
▁ጎረቤ	-7431
▁ጥበብ	-7432
▁ጨረቃ	-7433
▁ፍፁም	-7434
aniif	-7435
itara	-7436
sinee	-7437
▁Maal	-7438
▁ነበረኝ	-7439
▁አልጋው	-7440
▁አባትህ	-7441
▁እህቶች	-7442
▁እንሆና	-7443
▁ዝቅተኛ	-7444
aannee	-7445
eeyyii	-7446
▁dhaba	-7447
▁eegne	-7448
▁erguu	-7449
▁jechi	-7450
▁ማስተማር	-7451
▁ቦርሳዬን	-7452
▁ተናገረ።	-7453
▁የሚኖረው	-7454
▁የአሜሪካ	-7455
ineerra	-7456
▁amalli	-7457
▁dhibaa	-7458
▁ለብሳለች።	-7459
▁አልሄድም።	-7460
▁እሰራለሁ።	-7461
▁እየፈለግኩ	-7462
▁deemtaa	-7463
▁dhoksaa	-7464
▁herrega	-7465
▁jarreen	-7466
▁kaffala	-7467
▁lallaaf	-7468
▁taasise	-7469
▁እንዲያደርግ	-7470
▁የምትፈልገው	-7471
▁adaadaan	-7472
▁ajjeesuu	-7473
▁hojjenna	-7474
▁michoota	-7475
▁muraasni	-7476
▁dhiironni	-7477
▁fuulduraa	-7478
▁jaallatan	-7479
▁kompitara	-7480
▁kanaafidha	-7481
▁harkifachuu	-7482
▁maariyaamitti	-7483
ረጠ	-7484
ረጡ	-7485
ራል	-7486
ሰጡ	-7487
ትስ	-7488
ቾች	-7489
ነካ	-7490
ዛወ	-7491
ድሜ	-7492
ፍታ	-7493
▁ጂ	-7494
buu	-7495
ረች።	-7496
ስቶራ	-7497
ቅረብ	-7498
ትም።	-7499
ችውን	-7500
ኛለሁ	-7501
ከፍት	-7502
ዝናብ	-7503
ደርደ	-7504
ገረመ	-7505
▁ቁም	-7506
▁በሆ	-7507
▁ቡድ	-7508
▁የካ	-7509
▁የዛ	-7510
▁ገመ	-7511
▁ገጽ	-7512
▁ጨው	-7513
ቀዋል።	-7514
ዋለን።	-7515
ገራለሁ	-7516
▁ለመቀ	-7517
▁መላክ	-7518
▁መግለ	-7519
▁ማለፍ	-7520
▁ማጣት	-7521
▁ሰነፍ	-7522
▁ሽጉጥ	-7523
▁ቁራጭ	-7524
▁በአቅ	-7525
▁ብሄድ	-7526
▁ክብደ	-7527
▁የለሽ	-7528
▁ያለኝ	-7529
▁ይፈራ	-7530
iinii	-7531
ንቀሳቀስ	-7532
▁baqa	-7533
▁bitu	-7534
▁gamm	-7535
▁መጨነቅ	-7536
▁ተቀባይ	-7537
▁ተገናኘ	-7538
▁ተግባቢ	-7539
▁ትላለህ	-7540
▁አሳዛኝ	-7541
▁እንዳሉ	-7542
▁ከሁሉም	-7543
▁ከእርሱ	-7544
▁የአንድ	-7545
▁ይበላሉ	-7546
▁ይደውሉ	-7547
ametti	-7548
▁odola	-7549
▁rafee	-7550
▁ለመጨረስ	-7551
▁ለመፍታት	-7552
▁ተሰማው።	-7553
▁አሉዋት።	-7554
▁አላደረግ	-7555
▁አስበዋል	-7556
▁እውነትን	-7557
▁እጠራጠራ	-7558
▁የሚቆጠሩ	-7559
▁birraa	-7560
▁biyyaa	-7561
▁cimsee	-7562
▁hidhii	-7563
▁hubate	-7564
▁tolchi	-7565
▁ምክንያቱም	-7566
▁ትክክለኛው	-7567
▁አውሮፕላኑ	-7568
▁እናገራለሁ	-7569
▁dagadhu	-7570
▁dubbisu	-7571
▁eenyuun	-7572
▁jalqabu	-7573
▁qabaman	-7574
▁waaqayy	-7575
▁እስማማለሁ።	-7576
eessaadha	-7577
▁dadhabde	-7578
▁jalqabnu	-7579
▁rakkisuu	-7580
▁shamizii	-7581
▁dubbisuuf	-7582
▁eeggadhaa	-7583
▁barreeffame	-7584
▁sodaachisaa	-7585
▁dhaabbatichi	-7586
▁hojjettoonni	-7587
ሉዋ	-7588
ማግ	-7589
ረዝ	-7590
ሪት	-7591
ነፈ	-7592
ኩን	-7593
ደና	-7594
ዲያ	-7595
ጎም	-7596
ሄድም	-7597
መለሰ	-7598
ማግሌ	-7599
ርሃት	-7600
ባባይ	-7601
ካሄደ	-7602
ውንም	-7603
ግሎት	-7604
▁li	-7605
▁ልደ	-7606
▁ማዶ	-7607
▁ሥነ	-7608
▁ስው	-7609
▁አሸ	-7610
▁አዛ	-7611
▁አጽ	-7612
▁ከግ	-7613
▁ጠቅ	-7614
▁ጣል	-7615
▁ፋይ	-7616
tota	-7617
ziin	-7618
ሞክር።	-7619
ስታወስ	-7620
ዋንቡዋ	-7621
የትኛው	-7622
ፐርማር	-7623
▁kor	-7624
▁tee	-7625
▁ለብዙ	-7626
▁መፃህ	-7627
▁ምታት	-7628
▁አልጠ	-7629
▁እሳቱ	-7630
▁እንቆ	-7631
▁ካናዳ	-7632
▁ወሰነ	-7633
▁ውድቅ	-7634
▁ያለን	-7635
▁ይኸው	-7636
▁ይወድ	-7637
▁ይያዙ	-7638
ameef	-7639
▁fufi	-7640
▁suur	-7641
▁መደበኛ	-7642
▁ስፖርት	-7643
▁በመጥፎ	-7644
▁በወጣት	-7645
▁ነበረች	-7646
▁ነበርኩ	-7647
▁አራዊት	-7648
▁እርሳስ	-7649
▁እንድና	-7650
▁የምለው	-7651
▁የአበባ	-7652
▁ያረጋግ	-7653
▁ደወልኩ	-7654
▁	-7655
a	-7656
i	-7657
e	-7658
n	-7659
u	-7660
t	-7661
o	-7662
r	-7663
k	-7664
h	-7665
d	-7666
s	-7667
.	-7668
m	-7669
b	-7670
ን	-7671
።	-7672
l	-7673
ም	-7674
g	-7675
አ	-7676
ለ	-7677
ት	-7678
f	-7679
ው	-7680
ል	-7681
እ	-7682
y	-7683
በ	-7684
ነ	-7685
ር	-7686
j	-7687
ስ	-7688
መ	-7689
ይ	-7690
q	-7691
የ	-7692
ደ	-7693
?	-7694
ህ	-7695
'	-7696
c	-7697
ያ	-7698
ተ	-7699
ሁ	-7700
ች	-7701
ብ	-7702
w	-7703
ላ	-7704
ማ	-7705
ድ	-7706
ገ	-7707
ረ	-7708
ግ	-7709
ና	-7710
ወ	-7711
ሰ	-7712
ከ	-7713
ጥ	-7714
ቶ	-7715
ታ	-7716
ፈ	-7717
ራ	-7718
ኝ	-7719
ጠ	-7720
ቀ	-7721
ዋ	-7722
ባ	-7723
ክ	-7724
ጣ	-7725
ዳ	-7726
ጋ	-7727
ቅ	-7728
ሳ	-7729
ሉ	-7730
ኛ	-7731
ፍ	-7732
ዎ	-7733
p	-7734
ሆ	-7735
ዚ	-7736
ሚ	-7737
ቃ	-7738
ቱ	-7739
ኩ	-7740
ሩ	-7741
x	-7742
ሱ	-7743
ጊ	-7744
ዜ	-7745
ካ	-7746
ቤ	-7747
ዝ	-7748
ቻ	-7749
ዘ	-7750
ዛ	-7751
ኔ	-7752
ሪ	-7753
ቸ	-7754
ቁ	-7755
ሽ	-7756
ሞ	-7757
ሄ	-7758
ቆ	-7759
ሮ	-7760
ዙ	-7761
,	-7762
ሊ	-7763
ጉ	-7764
ጨ	-7765
ሻ	-7766
ቡ	-7767
ዬ	-7768
ሃ	-7769
ፋ	-7770
ሬ	-7771
ዲ	-7772
ቴ	-7773
ኖ	-7774
ሙ	-7775
ሌ	-7776
ቦ	-7777
ሀ	-7778
ፊ	-7779
ኑ	-7780
ʼ	-7781
ጅ	-7782
ጀ	-7783
ጽ	-7784
ጫ	-7785
ቢ	-7786
ጭ	-7787
ሎ	-7788
ጎ	-7789
ዴ	-7790
ቂ	-7791
ኮ	-7792
"	-7793
ሜ	-7794
ኘ	-7795
ኪ	-7796
ዱ	-7797
ቹ	-7798
ዶ	-7799
ጆ	-7800
ቼ	-7801
ጓ	-7802
ሸ	-7803
ኹ	-7804
ሥ	-7805
’	-7806
!	-7807
፣	-7808
ጃ	-7809
ሲ	-7810
z	-7811
0	-7812
ሴ	-7813
ፎ	-7814
ዕ	-7815
ጡ	-7816
ቲ	-7817
ሶ	-7818
ኞ	-7819
ፓ	-7820
ጸ	-7821
ዩ	-7822
ዊ	-7823
ፖ	-7824
v	-7825
ቄ	-7826
ኳ	-7827
ፉ	-7828
ሕ	-7829
ፕ	-7830
1	-7831
ጦ	-7832
ኬ	-7833
ፒ	-7834
ጻ	-7835
ኒ	-7836
ጌ	-7837
ዮ	-7838
ጄ	-7839
ሯ	-7840
ፃ	-7841
ጁ	-7842
3	-7843
ዞ	-7844
ሂ	-7845
2	-7846
ሹ	-7847
ኙ	-7848
ቪ	-7849
ጤ	-7850
ኸ	-7851
ሦ	-7852
-	-7853
ጂ	-7854
ጹ	-7855
ፌ	-7856
ጴ	-7857
ጮ	-7858
ኢ	-7859
ሾ	-7860
ዥ	-7861
ፁ	-7862
ዣ	-7863
ፅ	-7864
ኤ	-7865
9	-7866
ቺ	-7867
5	-7868
ፏ	-7869
T	-7870
ኗ	-7871
ሣ	-7872
ዷ	-7873
:	-7874
ኃ	-7875
A	-7876
ኦ	-7877
ጪ	-7878
ጧ	-7879
6	-7880
8	-7881
ሺ	-7882
4	-7883
M	-7884
7	-7885
K	-7886
፡	-7887
ሼ	-7888
ጢ	-7889
H	-7890
B	-7891
ቾ	-7892
D	-7893
ጩ	-7894
I	-7895
S	-7896
ሔ	-7897
ቫ	-7898
ሑ	-7899
G	-7900
ቨ	-7901
W	-7902
ዟ	-7903
ጬ	-7904
(	-7905
)	-7906
ዉ	-7907
ጇ	-7908
ፐ	-7909
Y	-7910
%	-7911
N	-7912
ፔ	-7913
ቭ	-7914
F	-7915
O	-7916
ኜ	-7917
R	-7918
ዤ	-7919
ኻ	-7920
ዡ	-7921
C	-7922
Q	-7923
ፑ	-7924
ቷ	-7925
ኚ	-7926
ዌ	-7927
ቮ	-7928
ጾ	-7929
ቬ	-7930
ኋ	-7931
J	-7932
ፂ	-7933
E	-7934
P	-7935
ኧ	-7936
ጿ	-7937
L	-7938
ዢ	-7939
;	-7940
X	-7941
ዑ	-7942
ሷ	-7943
ኅ	-7944
ዠ	-7945
ፆ	-7946
ሒ	-7947
ጯ	-7948
U	-7949
ዖ	-7950
“	-7951
”	-7952
V	-7953
ዦ	-7954
ቋ	-7955
ኽ	-7956
ሡ	-7957
ኡ	-7958
ዃ	-7959
ጺ	-7960
$	-7961
/	-7962
é	-7963
ኼ	-7964
ሏ	-7965
ዒ	-7966
፤	-7967
+	-7968
ሓ	-7969
ኟ	-7970
ኄ	-7971
ኾ	-7972
ዪ	-7973
ጶ	-7974
ፄ	-7975
&	-7976
ዀ	-7977
ጕ	-7978
ጵ	-7979
‘	-7980
«	-7981
°	-7982
ሖ	-7983
ሟ	-7984
ቈ	-7985
ቊ	-7986
ቧ	-7987
ቿ	-7988
ኰ	-7989
ጱ	-7990
ጲ	-7991
ጳ	-7992
ጼ	-7993
–	-7994
€	-7995
