<pad>	0
<unk>	0
<s>	0
</s>	0
aa	-0
ee	-1
an	-2
oo	-3
ii	-4
▁h	-5
▁d	-6
▁k	-7
uu	-8
▁t	-9
▁b	-10
▁a	-11
ti	-12
ar	-13
▁g	-14
kk	-15
▁i	-16
▁n	-17
▁m	-18
in	-19
▁s	-20
aan	-21
am	-22
at	-23
▁j	-24
▁q	-25
dh	-26
al	-27
ab	-28
▁hin	-29
ch	-30
ir	-31
▁dh	-32
▁w	-33
ur	-34
ees	-35
da	-36
▁akk	-37
eess	-38
aal	-39
▁y	-40
▁qab	-41
un	-42
een	-43
▁f	-44
tti	-45
oom	-46
▁is	-47
▁bar	-48
ana	-49
▁jir	-50
▁toom	-51
ra	-52
▁akka	-53
aat	-54
atti	-55
chuu	-56
▁tur	-57
is	-58
baa	-59
▁to	-60
iin	-61
ni	-62
um	-63
yy	-64
dha	-65
er	-66
▁ta	-67
▁dan	-68
aar	-69
▁keess	-70
▁koo	-71
▁barbaa	-72
aaf	-73
▁tokk	-74
▁ho	-75
dd	-76
ama	-77
il	-78
eroo	-79
▁yeroo	-80
▁baa	-81
▁ture	-82
▁tokko	-83
▁waan	-84
ag	-85
▁o	-86
▁kana	-87
▁dee	-88
bb	-89
ta	-90
▁ir	-91
ma	-92
▁gar	-93
▁bee	-94
▁dhu	-95
▁go	-96
▁je	-97
iif	-98
▁c	-99
▁beek	-100
jj	-101
raa	-102
▁ar	-103
▁maal	-104
akk	-105
eeny	-106
▁qaba	-107
uun	-108
▁kun	-109
▁wal	-110
▁yaa	-111
▁danda	-112
▁hun	-113
oon	-114
▁arg	-115
▁am	-116
▁nan	-117
taa	-118
▁isaa	-119
eera	-120
te	-121
sa	-122
tu	-123
ne	-124
itti	-125
▁jira	-126
▁du	-127
la	-128
▁kan	-129
uuf	-130
maa	-131
saa	-132
▁qo	-133
▁gu	-134
▁na	-135
ff	-136
▁baay	-137
▁l	-138
▁ni	-139
▁natti	-140
▁an	-141
achuu	-142
tii	-143
▁ko	-144
ph	-145
▁sana	-146
ll	-147
▁nam	-148
▁kee	-149
▁jedh	-150
▁x	-151
▁si	-152
▁dand	-153
▁hojj	-154
▁sun	-155
▁hojje	-156
▁mee	-157
▁deem	-158
adh	-159
ratti	-160
▁akkas	-161
▁ani	-162
▁mi	-163
iis	-164
▁fakk	-165
▁in	-166
▁ish	-167
▁dubb	-168
im	-169
aata	-170
▁dhug	-171
tee	-172
▁nama	-173
na	-174
▁keessa	-175
▁irratti	-176
iq	-177
fa	-178
▁jiru	-179
daa	-180
▁gaar	-181
▁jaal	-182
yaa	-183
ri	-184
▁sa	-185
di	-186
ww	-187
ol	-188
▁itti	-189
eessa	-190
▁qabu	-191
▁haa	-192
ata	-193
ann	-194
all	-195
▁gaarii	-196
ala	-197
▁har	-198
▁gochuu	-199
▁boo	-200
▁barbaada	-201
ddaa	-202
anaa	-203
oota	-204
uma	-205
aalaa	-206
▁mana	-207
chis	-208
▁yaada	-209
▁dhag	-210
▁gara	-211
▁ku	-212
▁il	-213
chaa	-214
▁dha	-215
▁hunda	-216
▁as	-217
eenya	-218
du	-219
rii	-220
en	-221
ga	-222
▁ga	-223
yyee	-224
▁hoj	-225
▁fu	-226
▁ra	-227
▁sir	-228
▁gaaf	-229
▁gal	-230
▁ishee	-231
ate	-232
▁dur	-233
▁isa	-234
▁r	-235
▁deeb	-236
▁akkan	-237
▁fi	-238
nk	-239
▁waliin	-240
oonni	-241
▁ken	-242
amma	-243
▁dhuf	-244
tuu	-245
ba	-246
▁ha	-247
▁jedheen	-248
yyaa	-249
▁barbaachis	-250
▁waa	-251
anii	-252
▁ee	-253
▁isaan	-254
▁beeku	-255
▁naaf	-256
▁bi	-257
▁miti	-258
▁ati	-259
▁bo	-260
▁of	-261
▁mu	-262
aataa	-263
ame	-264
▁af	-265
go	-266
▁ba	-267
▁u	-268
▁baayyee	-269
▁amma	-270
▁nu	-271
▁keessatti	-272
▁namni	-273
gaa	-274
▁him	-275
aatii	-276
▁akkam	-277
dii	-278
alee	-279
▁keessan	-280
▁irraa	-281
▁qofa	-282
atu	-283
▁p	-284
qa	-285
▁dhi	-286
▁dhaga	-287
▁booda	-288
▁bil	-289
▁dar	-290
alaa	-291
▁wan	-292
amaa	-293
dhu	-294
▁mur	-295
▁ny	-296
▁hojii	-297
▁so	-298
▁hir	-299
▁dandeess	-300
llee	-301
▁maaliif	-302
re	-303
si	-304
▁yaad	-305
▁afaan	-306
▁ma	-307
▁guddaa	-308
▁fakkaata	-309
iqq	-310
▁ilaal	-311
chi	-312
▁ab	-313
gaar	-314
nkol	-315
▁hundi	-316
▁xiqq	-317
▁rakk	-318
▁gargaar	-319
on	-320
▁ji	-321
▁konkol	-322
aas	-323
▁beeka	-324
▁ij	-325
ummaa	-326
▁han	-327
▁caalaa	-328
▁bir	-329
▁keessaa	-330
▁eeg	-331
ru	-332
▁os	-333
phaa	-334
▁gamma	-335
umaa	-336
▁yoo	-337
▁jiraa	-338
▁mii	-339
▁sh	-340
▁keenya	-341
yya	-342
▁inni	-343
itaa	-344
cha	-345
▁guyyaa	-346
ool	-347
▁jaall	-348
▁wanti	-349
duu	-350
▁ka	-351
kan	-352
▁jal	-353
nu	-354
▁guu	-355
aatu	-356
ub	-357
▁do	-358
▁kar	-359
▁qabna	-360
qab	-361
▁eeny	-362
ka	-363
sii	-364
▁wa	-365
▁isin	-366
kaa	-367
▁deebi	-368
▁sar	-369
▁qabda	-370
▁yeroon	-371
▁irra	-372
▁dhuguma	-373
tiin	-374
tan	-375
▁jalqab	-376
▁dab	-377
▁taph	-378
▁kitaa	-379
▁dhaa	-380
amu	-381
bil	-382
eer	-383
▁war	-384
iyaa	-385
eeff	-386
▁bakk	-387
eef	-388
▁qor	-389
▁meerii	-390
▁dhiis	-391
▁bilbil	-392
▁da	-393
dduu	-394
▁aman	-395
ataa	-396
▁far	-397
aala	-398
umur	-399
dda	-400
yyaan	-401
▁dandeeny	-402
qaa	-403
iyy	-404
▁siif	-405
▁barbaadu	-406
annoo	-407
▁bu	-408
de	-409
dhe	-410
▁barr	-411
▁hanga	-412
▁aj	-413
▁darb	-414
saay	-415
ars	-416
▁jaalla	-417
ansaay	-418
▁manaa	-419
▁osoo	-420
atte	-421
▁faransaay	-422
oof	-423
▁san	-424
▁bal	-425
dhaa	-426
▁uff	-427
aadha	-428
▁konkolaataa	-429
▁hund	-430
▁isheen	-431
▁roo	-432
▁maalla	-433
▁akkamitti	-434
▁fa	-435
▁kenn	-436
▁garuu	-437
▁barbaachisa	-438
ill	-439
▁nyaa	-440
▁kaa	-441
anne	-442
▁seen	-443
▁qu	-444
allee	-445
▁turre	-446
▁toomii	-447
mii	-448
▁bakka	-449
amuu	-450
lf	-451
aaraa	-452
▁isaanii	-453
▁asitti	-454
▁xiqqoo	-455
▁dhab	-456
▁sitti	-457
kii	-458
▁daa	-459
if	-460
▁ijoo	-461
chuun	-462
▁amm	-463
▁hal	-464
▁turte	-465
▁eenyu	-466
▁sirrii	-467
aate	-468
▁mir	-469
▁fudha	-470
dhaan	-471
▁tola	-472
ggo	-473
▁dogo	-474
▁fudh	-475
▁ib	-476
jjii	-477
▁bis	-478
▁biraa	-479
▁lam	-480
▁wag	-481
▁halkan	-482
▁hi	-483
▁dhukk	-484
▁dura	-485
▁dogoggo	-486
▁dhii	-487
▁ol	-488
eeraa	-489
▁yaal	-490
▁jet	-491
▁kutaa	-492
▁deema	-493
▁ajaa	-494
▁suu	-495
▁qill	-496
att	-497
eet	-498
▁dandeessu	-499
▁dhugaa	-500
▁faransaayii	-501
▁gan	-502
aay	-503
▁gur	-504
▁ayyaan	-505
▁er	-506
▁waanan	-507
iyaam	-508
adhu	-509
▁namoonni	-510
inaa	-511
chuuf	-512
▁he	-513
aariyaam	-514
▁fii	-515
▁obb	-516
ina	-517
▁xumur	-518
▁fakkaatu	-519
▁obbol	-520
▁sal	-521
baan	-522
▁tor	-523
▁kanaa	-524
adhe	-525
▁gah	-526
▁malee	-527
▁maariyaam	-528
▁ammallee	-529
pp	-530
siis	-531
suu	-532
▁dubbis	-533
▁qabaa	-534
▁barreess	-535
▁barum	-536
▁roob	-537
▁dhiif	-538
▁maallaqa	-539
▁eessa	-540
▁ayyaana	-541
▁tokkollee	-542
▁mitii	-543
arraa	-544
aatiin	-545
haan	-546
▁qabdu	-547
adha	-548
▁fuu	-549
amm	-550
fii	-551
iy	-552
▁dubbachuu	-553
▁barbaadd	-554
anni	-555
▁torb	-556
▁jijjii	-557
or	-558
▁yoom	-559
▁jirra	-560
▁al	-561
▁sadii	-562
st	-563
amee	-564
▁kal	-565
ubb	-566
▁hojjet	-567
attu	-568
▁hub	-569
aniiru	-570
▁wajj	-571
▁fe	-572
▁bita	-573
▁dandeenye	-574
▁wajjin	-575
▁mar	-576
▁salphaa	-577
▁kam	-578
▁saree	-579
▁nyaata	-580
naa	-581
▁fil	-582
aasa	-583
aann	-584
isa	-585
▁gaa	-586
▁dandeessaa	-587
▁waggaa	-588
▁haaraa	-589
▁raa	-590
▁homaa	-591
▁sag	-592
▁kaff	-593
oor	-594
▁kaleessa	-595
▁haf	-596
▁bishaan	-597
▁jirta	-598
▁barumsaa	-599
ib	-600
▁daf	-601
▁dhiifama	-602
aba	-603
achaa	-604
aane	-605
▁haasa	-606
▁fayya	-607
▁goo	-608
attee	-609
▁haww	-610
▁harka	-611
▁guutuu	-612
▁karaa	-613
▁dhagah	-614
▁ti	-615
chii	-616
▁gadi	-617
▁gudd	-618
▁taa	-619
▁boru	-620
nis	-621
▁murt	-622
achuuf	-623
▁jijjiir	-624
▁qof	-625
▁fur	-626
▁kitaab	-627
▁lama	-628
▁cu	-629
▁dadh	-630
▁dhiy	-631
▁guut	-632
achuun	-633
▁jaalladha	-634
▁qilleen	-635
▁ci	-636
kaan	-637
▁torban	-638
▁tar	-639
▁achi	-640
▁fayyad	-641
▁dadhab	-642
le	-643
▁carraa	-644
ara	-645
bbaan	-646
▁barbaan	-647
nkumaa	-648
ull	-649
diin	-650
▁lamaan	-651
▁gonkumaa	-652
isaa	-653
▁boq	-654
sh	-655
ttaa	-656
▁innis	-657
eessaa	-658
▁jedhee	-659
eessi	-660
▁balaa	-661
aam	-662
wwan	-663
▁ganama	-664
▁add	-665
▁gat	-666
▁mag	-667
▁dheeraa	-668
▁yaadd	-669
▁baree	-670
amb	-671
faa	-672
▁dogoggora	-673
se	-674
▁"	-675
▁bah	-676
▁duu	-677
▁kaffal	-678
▁hojiin	-679
ilaa	-680
▁meeqa	-681
atee	-682
▁rakkoo	-683
ine	-684
eessuu	-685
to	-686
▁turan	-687
dheera	-688
amne	-689
▁kenni	-690
▁ammas	-691
▁hojjechuu	-692
isii	-693
malee	-694
▁ammaa	-695
▁kanaaf	-696
raan	-697
▁barbaachisu	-698
▁muu	-699
▁garmalee	-700
▁hamaa	-701
eesse	-702
▁fag	-703
▁dhih	-704
▁jaa	-705
▁dag	-706
▁dhukkub	-707
▁hedduu	-708
lq	-709
▁qa	-710
qii	-711
▁ulf	-712
▁gaaffii	-713
bu	-714
▁muraasa	-715
▁jirti	-716
▁dhaabb	-717
▁im	-718
▁kanaan	-719
▁maali	-720
▁balb	-721
▁bara	-722
▁kophaa	-723
lqull	-724
nee	-725
▁sab	-726
ateera	-727
▁qulqull	-728
eettii	-729
li	-730
▁nag	-731
▁dhim	-732
▁silaa	-733
▁cuf	-734
▁adda	-735
cc	-736
▁dabal	-737
ota	-738
▁ri	-739
▁maaltu	-740
▁abbaan	-741
▁moo	-742
▁taane	-743
▁deemuun	-744
it	-745
▁qar	-746
▁yaade	-747
▁gochuun	-748
▁manni	-749
adheera	-750
▁gochuuf	-751
▁kitaaba	-752
umm	-753
▁sodaa	-754
▁namoota	-755
dhii	-756
atan	-757
▁liq	-758
▁gab	-759
iyyuu	-760
uk	-761
▁e	-762
▁goww	-763
▁sanatti	-764
▁nuti	-765
▁mas	-766
of	-767
▁hark	-768
▁kootti	-769
▁barbaade	-770
▁kooti	-771
▁darbe	-772
icha	-773
annaa	-774
chiis	-775
▁osoon	-776
▁lakk	-777
▁ijooll	-778
▁int	-779
▁deemuu	-780
▁la	-781
▁hii	-782
▁jechuu	-783
▁haala	-784
▁aar	-785
▁ijoollee	-786
yyuu	-787
es	-788
gg	-789
ston	-790
▁qoo	-791
aanaa	-792
▁mud	-793
▁akkasitti	-794
zii	-795
▁deemu	-796
ootti	-797
▁hayy	-798
ati	-799
▁qabne	-800
▁godhu	-801
▁tokkon	-802
▁ool	-803
▁arguu	-804
▁walii	-805
▁ag	-806
see	-807
bur	-808
▁mil	-809
toota	-810
ffaa	-811
▁dhagahama	-812
▁raf	-813
."	-814
atta	-815
ree	-816
geeff	-817
ameera	-818
▁akkasii	-819
▁tol	-820
▁dandeessa	-821
ppaan	-822
▁dhufu	-823
▁baabur	-824
▁koph	-825
▁barbaaddaa	-826
▁abbaa	-827
▁dhufe	-828
eetii	-829
▁naann	-830
▁sanaa	-831
▁buuf	-832
▁duraan	-833
▁dabars	-834
▁arge	-835
▁dhiisuu	-836
▁dii	-837
▁rif	-838
tanii	-839
▁jaappaan	-840
gala	-841
▁dhum	-842
▁jibb	-843
▁naannoo	-844
ichi	-845
▁deeme	-846
▁abdiin	-847
annu	-848
toonni	-849
gil	-850
▁cim	-851
▁galat	-852
▁hirri	-853
▁pool	-854
qalaa	-855
▁ad	-856
▁ruk	-857
▁til	-858
▁erga	-859
▁teess	-860
▁tilmaa	-861
arra	-862
▁beekuu	-863
laa	-864
▁gor	-865
▁boqon	-866
▁hojjechaa	-867
kanaa	-868
▁dhaab	-869
▁cab	-870
▁mirkanaa	-871
▁hime	-872
▁sirriitti	-873
▁roobni	-874
▁dhal	-875
▁fedhii	-876
▁isheenis	-877
▁ajj	-878
▁dhimma	-879
hii	-880
▁aan	-881
▁godh	-882
▁masqalaa	-883
▁ruku	-884
taan	-885
ootaa	-886
▁raaww	-887
▁beektaa	-888
▁muc	-889
▁gatii	-890
▁sagalee	-891
▁hundumaa	-892
us	-893
▁ilaalaa	-894
▁gargaarsa	-895
▁ob	-896
▁haal	-897
▁jiraachuu	-898
▁maqaa	-899
▁nuuf	-900
▁hamm	-901
▁jirtu	-902
ok	-903
dur	-904
▁kaas	-905
▁muuz	-906
▁barbaanne	-907
▁dhaggeeff	-908
gili	-909
▁dhaq	-910
▁godhe	-911
▁dafee	-912
▁og	-913
▁uffata	-914
bbaa	-915
▁tas	-916
eesh	-917
▁bun	-918
▁fuf	-919
▁caal	-920
▁gurg	-921
▁tokkotti	-922
▁jechuun	-923
▁jaalladhu	-924
onni	-925
chiisa	-926
aataan	-927
▁akkuma	-928
▁addun	-929
▁jedhe	-930
▁haadha	-931
▁ingili	-932
▁mirkan	-933
▁fo	-934
▁umur	-935
▁deebii	-936
▁inj	-937
▁maaloo	-938
qiiqaa	-939
▁ijoolleen	-940
xx	-941
▁qabdi	-942
▁gaariitti	-943
▁gargaaruu	-944
isuu	-945
aatti	-946
▁eegg	-947
▁daqiiqaa	-948
▁balbala	-949
▁barsiis	-950
▁dhiq	-951
▁kenne	-952
▁sareen	-953
▁xi	-954
dhaaf	-955
▁walitti	-956
bar	-957
▁ija	-958
▁qabnu	-959
▁cimaa	-960
▁gahaa	-961
ibaa	-962
▁mul	-963
▁fiil	-964
▁fiig	-965
alli	-966
▁goon	-967
▁himuu	-968
om	-969
▁jedhu	-970
▁sad	-971
▁daaww	-972
▁jirtaa	-973
▁kophee	-974
▁qofan	-975
▁ala	-976
adhaa	-977
▁miira	-978
▁min	-979
aatee	-980
oomaa	-981
▁jab	-982
▁saff	-983
▁sirr	-984
▁eegaa	-985
▁godha	-986
jii	-987
▁bilbila	-988
▁manaatti	-989
▁akkamii	-990
▁barbaachisaa	-991
▁ban	-992
▁xala	-993
▁dheer	-994
▁jireeny	-995
▁ach	-996
▁garaa	-997
▁injif	-998
▁argachuu	-999
▁dok	-1000
▁boqonnaa	-1001
▁daan	-1002
▁ofii	-1003
▁mataa	-1004
▁tokkoon	-1005
aman	-1006
▁meesh	-1007
▁eenyuu	-1008
▁nyaataa	-1009
▁dandeenyu	-1010
inii	-1011
▁kom	-1012
uudha	-1013
▁qaa	-1014
▁damb	-1015
▁kolf	-1016
▁agars	-1017
▁hunduu	-1018
aana	-1019
▁rakkoon	-1020
▁addunyaa	-1021
oos	-1022
▁harkif	-1023
▁karoor	-1024
ummaatti	-1025
▁eenyutu	-1026
▁magaalaa	-1027
▁biyya	-1028
▁kennuu	-1029
▁suuraa	-1030
▁abdii	-1031
▁hamma	-1032
▁gammad	-1033
▁1	-1034
▁cir	-1035
eensa	-1036
▁beektu	-1037
▁teessoo	-1038
▁di	-1039
▁din	-1040
▁dambal	-1041
▁guyyaan	-1042
▁gi	-1043
▁hiriyy	-1044
▁wayya	-1045
siisaa	-1046
▁dir	-1047
ald	-1048
▁nyaachuu	-1049
▁qoph	-1050
qis	-1051
▁warra	-1052
▁hojjen	-1053
▁barbaaddu	-1054
agg	-1055
▁qabduu	-1056
▁kamiyyuu	-1057
▁isaaf	-1058
▁jireenya	-1059
▁diimaa	-1060
▁jaallata	-1061
daan	-1062
▁kuf	-1063
▁bilch	-1064
su	-1065
▁dhufuu	-1066
▁gurgur	-1067
▁bira	-1068
▁lubb	-1069
isaan	-1070
▁samm	-1071
▁dubar	-1072
▁guutummaatti	-1073
urx	-1074
aalee	-1075
▁dald	-1076
▁kaar	-1077
▁guddaadha	-1078
dhan	-1079
▁erg	-1080
▁gabaa	-1081
▁jaallatu	-1082
▁qurx	-1083
▁guddaan	-1084
▁isiniif	-1085
▁hiriyyoota	-1086
umsa	-1087
▁argi	-1088
▁dabalataa	-1089
▁xuu	-1090
▁walga	-1091
▁sababa	-1092
▁buufata	-1093
tar	-1094
▁durii	-1095
▁seenaa	-1096
▁barbaadde	-1097
▁konkolaataan	-1098
ira	-1099
ummii	-1100
▁gaafate	-1101
▁galm	-1102
▁xuux	-1103
▁sammuu	-1104
▁fakkaat	-1105
▁ciis	-1106
▁yaalaa	-1107
amaan	-1108
▁qilleensaa	-1109
kil	-1110
▁faay	-1111
▁waadaa	-1112
▁aw	-1113
▁anis	-1114
▁hojjetu	-1115
▁ifa	-1116
▁baaf	-1117
▁tarii	-1118
▁muuziq	-1119
▁galgala	-1120
tir	-1121
▁nyaan	-1122
▁v	-1123
▁nagaa	-1124
▁ja	-1125
aara	-1126
▁foddaa	-1127
▁jaallat	-1128
▁buna	-1129
▁haati	-1130
▁muraas	-1131
▁qabaachuu	-1132
▁bareedduu	-1133
▁dhiyootti	-1134
▁ch	-1135
oonii	-1136
▁oolu	-1137
▁fudhachuu	-1138
▁ammaatti	-1139
▁abj	-1140
▁jech	-1141
▁yaaddu	-1142
tiif	-1143
▁deebis	-1144
▁fakkaate	-1145
eerra	-1146
▁xalayaa	-1147
▁T	-1148
eeri	-1149
gagg	-1150
qaan	-1151
▁hor	-1152
▁ibi	-1153
maata	-1154
▁sirb	-1155
▁qal	-1156
iyyaa	-1157
▁warri	-1158
▁dargagg	-1159
oodha	-1160
▁saan	-1161
▁jibba	-1162
uum	-1163
oora	-1164
▁jecha	-1165
▁fuul	-1166
▁nyaat	-1167
▁waajj	-1168
▁agarsiis	-1169
tin	-1170
▁ameeri	-1171
▁kennaa	-1172
▁bitachuu	-1173
▁jiran	-1174
▁kudhan	-1175
▁maatii	-1176
▁dambalii	-1177
▁dhukkubs	-1178
dhee	-1179
▁irb	-1180
▁dhumaa	-1181
▁jalqabe	-1182
▁obboleessa	-1183
▁uum	-1184
▁amana	-1185
▁ajjees	-1186
▁barbaadda	-1187
▁ur	-1188
▁laa	-1189
dheen	-1190
umaan	-1191
▁dhok	-1192
▁qillee	-1193
▁filannoo	-1194
▁hojjedhu	-1195
rsaa	-1196
▁hiik	-1197
▁toomiin	-1198
▁galatoomaa	-1199
bii	-1200
lli	-1201
unn	-1202
▁qaban	-1203
▁fuuldur	-1204
▁hirriba	-1205
▁gammachuu	-1206
▁oto	-1207
▁keeny	-1208
▁miidh	-1209
▁fiilmii	-1210
▁dhugaatii	-1211
▁hojjeta	-1212
▁tv	-1213
alle	-1214
busii	-1215
▁muka	-1216
▁biskil	-1217
▁qabdaa	-1218
▁qurxummii	-1219
dduun	-1220
▁dinqis	-1221
▁kunuun	-1222
▁irbaata	-1223
▁hiriyyaa	-1224
▁otobusii	-1225
▁od	-1226
▁dull	-1227
▁amanuu	-1228
▁jalqaba	-1229
▁haas	-1230
▁dabar	-1231
▁bareedaa	-1232
siif	-1233
▁qoosaa	-1234
▁lafa	-1235
▁poolis	-1236
▁tokkoof	-1237
▁dandeenya	-1238
▁gaafachuu	-1239
▁edaa	-1240
▁hord	-1241
▁dhuma	-1242
▁umuriin	-1243
▁bit	-1244
▁walakk	-1245
▁ilaaluu	-1246
anna	-1247
iyaan	-1248
▁barsiisaa	-1249
▁eeggannoo	-1250
▁sod	-1251
▁way	-1252
▁hafe	-1253
▁goote	-1254
▁shakk	-1255
▁hammam	-1256
▁intala	-1257
▁hedduun	-1258
▁arguun	-1259
▁kaba	-1260
▁laaq	-1261
▁paar	-1262
▁siree	-1263
amaadha	-1264
▁achitti	-1265
▁shan	-1266
▁karoora	-1267
▁jettanii	-1268
maan	-1269
▁sim	-1270
▁minj	-1271
▁argadhe	-1272
▁barachuu	-1273
attii	-1274
▁lakkoof	-1275
aj	-1276
udha	-1277
▁hall	-1278
▁deemaa	-1279
▁dinqisiif	-1280
▁dhiph	-1281
▁kabaj	-1282
▁baratt	-1283
▁haalli	-1284
▁ameerikaa	-1285
▁biq	-1286
▁ajaj	-1287
▁baas	-1288
▁dukk	-1289
▁qori	-1290
▁wagg	-1291
▁boston	-1292
▁qophaa	-1293
dee	-1294
▁baan	-1295
▁jalqabaa	-1296
dan	-1297
waa	-1298
▁naan	-1299
arratti	-1300
▁milkaa	-1301
amboo	-1302
iniin	-1303
▁sadar	-1304
▁yaadda	-1305
▁booston	-1306
▁rifeensa	-1307
▁call	-1308
▁qars	-1309
▁argam	-1310
▁yaadu	-1311
▁tamboo	-1312
utti	-1313
▁foo	-1314
▁Toom	-1315
▁gaafat	-1316
▁biqil	-1317
▁galle	-1318
▁jalaa	-1319
kee	-1320
▁su	-1321
iina	-1322
▁deemne	-1323
▁galaanaa	-1324
▁ulfaataa	-1325
▁muraasaaf	-1326
▁reef	-1327
▁soch	-1328
yyeeff	-1329
▁hafuu	-1330
▁argine	-1331
▁taphachuu	-1332
▁gammadeera	-1333
▁tapha	-1334
▁kutaan	-1335
▁karoorf	-1336
▁konkolaa	-1337
▁xiyyeeff	-1338
▁hidh	-1339
▁dhabe	-1340
▁xiqqaa	-1341
▁saffisaan	-1342
▁mor	-1343
▁waar	-1344
▁haasof	-1345
▁qaamaa	-1346
aaraan	-1347
yyoota	-1348
▁namatti	-1349
▁kitaabni	-1350
▁jaallattu	-1351
▁xiyy	-1352
▁gidduu	-1353
▁muuziqaa	-1354
▁mo	-1355
▁oof	-1356
▁jettee	-1357
roo	-1358
xaa	-1359
▁tu	-1360
▁qarq	-1361
eettiin	-1362
teettaa	-1363
▁gammachiisa	-1364
▁qunn	-1365
▁miila	-1366
qni	-1367
uba	-1368
laan	-1369
▁dhan	-1370
▁shubb	-1371
mi	-1372
saan	-1373
▁oduu	-1374
▁sadarkaa	-1375
▁kir	-1376
▁soo	-1377
eedha	-1378
▁dool	-1379
▁gadd	-1380
▁komp	-1381
▁fayyaa	-1382
▁fudhate	-1383
▁gaariin	-1384
▁gadh	-1385
▁balal	-1386
eessuun	-1387
▁eessaa	-1388
▁kaffaltii	-1389
▁obboleettii	-1390
ung	-1391
itii	-1392
▁hat	-1393
irraa	-1394
▁eeguu	-1395
▁fuula	-1396
▁goone	-1397
▁eenyuutu	-1398
▁biskileetii	-1399
▁mall	-1400
▁furtuu	-1401
▁waaree	-1402
▁arganne	-1403
▁isaatiin	-1404
▁caalaatti	-1405
▁2	-1406
quu	-1407
▁fal	-1408
▁meeq	-1409
▁tasaa	-1410
▁baasuu	-1411
▁halluu	-1412
▁jiraata	-1413
llaa	-1414
▁lag	-1415
▁qarshii	-1416
▁tilmaam	-1417
▁qormaata	-1418
inuu	-1419
▁yaadni	-1420
▁akkaataa	-1421
▁qilleensi	-1422
▁nutti	-1423
▁dubbata	-1424
amni	-1425
▁bur	-1426
ataan	-1427
▁illee	-1428
▁mucaan	-1429
▁kitaabota	-1430
▁konkolaachis	-1431
▁turuu	-1432
▁hojjenne	-1433
▁hundinuu	-1434
▁walakkaa	-1435
▁A	-1436
aash	-1437
siisa	-1438
▁jala	-1439
▁kaan	-1440
▁deemnu	-1441
▁gowwaa	-1442
▁mudate	-1443
▁baabura	-1444
▁laaqana	-1445
▁barreeff	-1446
▁isinitti	-1447
▁beekta	-1448
▁kootiif	-1449
▁lubbuun	-1450
▁lol	-1451
▁dhufa	-1452
▁gorsa	-1453
▁jette	-1454
aaliyaa	-1455
▁magaal	-1456
▁xiqqaadha	-1457
taaf	-1458
▁alaa	-1459
▁hogg	-1460
▁minjaala	-1461
amii	-1462
▁sob	-1463
ustir	-1464
▁geess	-1465
▁deemuuf	-1466
▁dhiisaa	-1467
▁ariif	-1468
▁dhaam	-1469
▁jaalallee	-1470
▁mirkaneeff	-1471
▁rakkis	-1472
▁ogeessa	-1473
▁qarqara	-1474
▁waajjira	-1475
lu	-1476
neen	-1477
▁isn	-1478
▁kon	-1479
▁barn	-1480
▁damma	-1481
▁mallatt	-1482
▁gabaabaa	-1483
00	-1484
boo	-1485
aati	-1486
▁mucaa	-1487
▁kootii	-1488
▁argatte	-1489
▁awustir	-1490
▁murteess	-1491
▁dhumarratti	-1492
arr	-1493
lee	-1494
yoo	-1495
ummaan	-1496
▁kubbaa	-1497
▁tokkoo	-1498
eeq	-1499
▁jettu	-1500
▁lamma	-1501
▁qorra	-1502
▁arguuf	-1503
iba	-1504
▁imala	-1505
▁wayinii	-1506
▁awustiraaliyaa	-1507
ddoo	-1508
site	-1509
▁icc	-1510
▁iyyuu	-1511
▁jiraatu	-1512
▁if	-1513
batti	-1514
▁hang	-1515
▁himaa	-1516
▁yoomiyyuu	-1517
▁aff	-1518
▁hum	-1519
▁hima	-1520
▁taas	-1521
▁teen	-1522
▁amanu	-1523
▁bahuu	-1524
▁dhukkubb	-1525
▁mij	-1526
▁sham	-1527
adheen	-1528
▁dhung	-1529
▁barbaadaa	-1530
sp	-1531
▁gam	-1532
▁pir	-1533
▁gala	-1534
▁maqaan	-1535
▁yaadaa	-1536
▁bii	-1537
▁dirq	-1538
▁bakki	-1539
▁sabab	-1540
▁dubbatu	-1541
▁keessaniif	-1542
tora	-1543
▁abaa	-1544
▁shaay	-1545
▁addaan	-1546
▁kootiin	-1547
▁toomiif	-1548
▁duubatti	-1549
suuf	-1550
▁ana	-1551
eenye	-1552
▁yakk	-1553
▁garee	-1554
▁doonii	-1555
▁wantoota	-1556
▁fayyadamuu	-1557
▁namaa	-1558
▁narra	-1559
amummaa	-1560
▁affeer	-1561
▁dubbisuu	-1562
▁hojjechuuf	-1563
yaan	-1564
▁harm	-1565
▁fooyya	-1566
▁ilkaan	-1567
▁meeshaa	-1568
▁dheeraaf	-1569
▁fayyadam	-1570
▁anaaf	-1571
▁caalu	-1572
▁lammaffaa	-1573
gab	-1574
sar	-1575
▁ilma	-1576
▁suuta	-1577
▁tasgab	-1578
▁maallaqni	-1579
too	-1580
▁bin	-1581
atinaa	-1582
▁dhabuu	-1583
▁qorraa	-1584
▁daandii	-1585
▁dubbateera	-1586
▁salphaadha	-1587
ise	-1588
▁banaa	-1589
▁ijaar	-1590
▁jiruu	-1591
▁taate	-1592
▁galmee	-1593
▁dhukkuba	-1594
▁barreessuu	-1595
▁rakkisaadha	-1596
▁guyyoota	-1597
▁tilmaama	-1598
▁walgahii	-1599
▁gammachiis	-1600
▁socho	-1601
▁ingilizii	-1602
▁poolisiin	-1603
▁salphaatti	-1604
▁mala	-1605
▁gootu	-1606
▁beekne	-1607
▁hundaa	-1608
▁kanuma	-1609
▁abaaboo	-1610
▁kitaabaa	-1611
▁mitiiree	-1612
▁barbaadduu	-1613
ek	-1614
jiin	-1615
▁wii	-1616
shann	-1617
▁foon	-1618
▁qabb	-1619
▁seera	-1620
▁hordof	-1621
▁isniina	-1622
▁um	-1623
eens	-1624
▁buu	-1625
▁argu	-1626
▁jeeq	-1627
▁wara	-1628
▁dhibu	-1629
▁qalama	-1630
▁bashann	-1631
▁dulloom	-1632
▁hundaaf	-1633
atin	-1634
▁himi	-1635
▁ciree	-1636
▁faayi	-1637
▁kenna	-1638
▁sanaaf	-1639
▁fakkaatta	-1640
▁dall	-1641
▁boorsaa	-1642
▁ofirraa	-1643
▁bilbilaa	-1644
▁gargaaruuf	-1645
▁beekamaadha	-1646
▁boon	-1647
▁jedha	-1648
▁jireenyi	-1649
▁jireenyaa	-1650
▁saa	-1651
▁gaaz	-1652
▁sodd	-1653
▁deemtu	-1654
▁lakkaa	-1655
▁dhaloota	-1656
gal	-1657
gar	-1658
▁aann	-1659
▁hotee	-1660
▁humna	-1661
▁sagal	-1662
▁argate	-1663
▁dammaq	-1664
▁kompii	-1665
▁hafuura	-1666
▁qabbanaa	-1667
ck	-1668
miin	-1669
umatti	-1670
▁yaabb	-1671
eessuuf	-1672
▁aannan	-1673
▁jiraat	-1674
▁harmeen	-1675
essa	-1676
▁amala	-1677
▁iddoo	-1678
▁keetii	-1679
▁faayidaa	-1680
fal	-1681
xata	-1682
▁abjuu	-1683
▁hayyam	-1684
▁ilaala	-1685
▁doktora	-1686
▁fudhata	-1687
▁shaayii	-1688
▁tarkaan	-1689
▁hojjedha	-1690
▁garag	-1691
▁urgaa	-1692
▁doolaara	-1693
▁siin	-1694
▁gurraa	-1695
▁qoricha	-1696
▁argachuuf	-1697
▁taphachaa	-1698
bba	-1699
ksii	-1700
spit	-1701
▁jen	-1702
sitee	-1703
▁gosa	-1704
▁beeks	-1705
▁deemte	-1706
▁hospit	-1707
▁dhageess	-1708
▁dhukkubsa	-1709
inni	-1710
aamur	-1711
tarri	-1712
▁mari	-1713
▁qaxx	-1714
▁seer	-1715
▁yoon	-1716
▁sirba	-1717
▁isheef	-1718
▁miilaa	-1719
▁biqiltuu	-1720
▁qaxxaamur	-1721
jee	-1722
attuu	-1723
uuraa	-1724
▁tolu	-1725
▁cirra	-1726
▁hiika	-1727
▁hidhaa	-1728
▁tureef	-1729
▁dhiiraa	-1730
▁ingiliffaa	-1731
jaa	-1732
isiis	-1733
▁bite	-1734
▁jirtuu	-1735
▁murtoo	-1736
kn	-1737
ing	-1738
▁hiriy	-1739
▁ibsaa	-1740
▁kudha	-1741
▁hanqaa	-1742
▁gadhiis	-1743
▁baaburri	-1744
▁qulqulluu	-1745
moo	-1746
ilee	-1747
▁maxx	-1748
▁nuff	-1749
siisuu	-1750
▁kofal	-1751
▁hawwii	-1752
▁iccitii	-1753
bir	-1754
ttuu	-1755
▁umm	-1756
▁gaadd	-1757
▁irraan	-1758
▁dhiisee	-1759
▁dandeettii	-1760
aafi	-1761
▁eess	-1762
▁dursee	-1763
▁wiixata	-1764
▁yaaluun	-1765
▁sodaadha	-1766
▁obboleessi	-1767
qor	-1768
▁aww	-1769
▁dib	-1770
annee	-1771
▁duww	-1772
▁kaam	-1773
▁qorqor	-1774
▁daraaraa	-1775
▁gargaaru	-1776
▁bitachuuf	-1777
▁tir	-1778
▁dhuun	-1779
▁qorri	-1780
▁rukut	-1781
▁seene	-1782
atteettaa	-1783
▁daldalaa	-1784
▁gaafadhe	-1785
▁godheera	-1786
▁beela	-1787
▁biiraa	-1788
▁duwwaa	-1789
▁hojjete	-1790
▁barbaanna	-1791
▁jechootaa	-1792
30	-1793
che	-1794
tta	-1795
tara	-1796
▁bul	-1797
▁iyy	-1798
▁qaww	-1799
isiisaa	-1800
▁deemta	-1801
▁jaalala	-1802
▁eessatti	-1803
▁waggoota	-1804
ima	-1805
▁man	-1806
▁ergaa	-1807
▁fedhe	-1808
▁soddo	-1809
▁dhihoo	-1810
▁gurbaa	-1811
▁simbir	-1812
▁waraqaa	-1813
▁toomitti	-1814
goo	-1815
kiin	-1816
suun	-1817
▁isp	-1818
▁akee	-1819
▁waam	-1820
ibsiif	-1821
▁kunoo	-1822
▁qophii	-1823
▁hojiitti	-1824
▁ilaaluun	-1825
▁rakkisaa	-1826
arii	-1827
inaan	-1828
tummaa	-1829
▁callis	-1830
ha	-1831
omb	-1832
deen	-1833
iifi	-1834
▁qis	-1835
taniif	-1836
▁gatiin	-1837
▁ofitti	-1838
▁qisaas	-1839
▁sanduu	-1840
▁tasumaa	-1841
▁fudhadha	-1842
▁saroonni	-1843
▁gowwummaa	-1844
xa	-1845
ola	-1846
▁ykn	-1847
▁asoos	-1848
▁isaas	-1849
▁jirre	-1850
▁argama	-1851
▁haaraan	-1852
▁affeerraa	-1853
▁keessanii	-1854
▁muf	-1855
▁soba	-1856
annoon	-1857
▁argee	-1858
▁kennu	-1859
▁maxxan	-1860
▁naanna	-1861
▁namichi	-1862
▁dubartii	-1863
▁lakkoofsa	-1864
▁dogoggoraa	-1865
kuu	-1866
neef	-1867
▁ari	-1868
▁fir	-1869
▁laf	-1870
▁chaa	-1871
aatina	-1872
▁addaa	-1873
▁maash	-1874
▁deemsa	-1875
▁isaanis	-1876
▁kaardii	-1877
▁sababni	-1878
▁teenisii	-1879
aawaa	-1880
▁afur	-1881
▁himne	-1882
▁bilisa	-1883
▁dallaa	-1884
▁dhufaa	-1885
▁ilaale	-1886
▁gammadd	-1887
▁fudhadhu	-1888
▁hamaadha	-1889
▁ulfaatina	-1890
▁dandeenyaa	-1891
▁bor	-1892
ichaa	-1893
▁dees	-1894
▁fagaa	-1895
▁gaaze	-1896
▁qajee	-1897
▁reefu	-1898
▁yaale	-1899
▁balaan	-1900
▁garagal	-1901
▁dukkanaa	-1902
▁hogganaa	-1903
▁barsiisaan	-1904
▁dabarseera	-1905
▁barattoonni	-1906
sin	-1907
▁bos	-1908
▁saam	-1909
▁tole	-1910
▁mudaa	-1911
▁dhiise	-1912
▁sodaat	-1913
▁umurii	-1914
▁bineens	-1915
▁gaaddisa	-1916
▁barreessi	-1917
▁nyaachuuf	-1918
gi	-1919
jaaj	-1920
diyoo	-1921
▁poos	-1922
amaniiru	-1923
▁dubbate	-1924
▁poostaa	-1925
▁garaagar	-1926
▁obboleettiin	-1927
▁saay	-1928
aatiif	-1929
▁daftee	-1930
▁ilaalu	-1931
▁odeeff	-1932
▁waanuma	-1933
▁bilbilli	-1934
▁kitaabicha	-1935
ele	-1936
▁bade	-1937
▁boqo	-1938
▁turee	-1939
▁harkaa	-1940
▁akkanaa	-1941
▁isaatti	-1942
▁soddoma	-1943
▁hanqaaquu	-1944
▁ca	-1945
▁dhor	-1946
▁xuuxuu	-1947
▁dabarsuu	-1948
▁hojjedhe	-1949
▁meeqatti	-1950
▁dagatinaa	-1951
▁sodaachis	-1952
kka	-1953
aanni	-1954
neerra	-1955
▁taatee	-1956
▁paarkii	-1957
▁argachuun	-1958
▁barreesse	-1959
▁dhugaadha	-1960
▁gaariidha	-1961
eeb	-1962
▁fun	-1963
ombol	-1964
oolii	-1965
▁quba	-1966
chiisaa	-1967
▁piyaan	-1968
▁qawwee	-1969
▁kennite	-1970
▁obombol	-1971
▁qaruuraa	-1972
ppii	-1973
▁cinaa	-1974
▁fuudh	-1975
▁dhufne	-1976
▁qabaat	-1977
▁dirqama	-1978
▁hojjettu	-1979
▁hubachuu	-1980
araa	-1981
adhee	-1982
ittan	-1983
▁muux	-1984
▁qaana	-1985
▁balali	-1986
▁rukute	-1987
▁akkasuma	-1988
▁barreessaa	-1989
xii	-1990
▁gahe	-1991
▁laga	-1992
▁biroo	-1993
▁fagoo	-1994
▁ganna	-1995
▁obsuu	-1996
▁ciniin	-1997
▁konsar	-1998
▁lammii	-1999
▁gowwoom	-2000
▁poolisii	-2001
▁argadheera	-2002
▁hojjechuun	-2003
▁jaallattaa	-2004
rri	-2005
galaa	-2006
▁daree	-2007
▁goota	-2008
▁sagan	-2009
▁aniifi	-2010
▁fudhat	-2011
▁hiriyaa	-2012
▁dhangala	-2013
▁galateeff	-2014
bboo	-2015
kaaka	-2016
▁rafe	-2017
▁argeera	-2018
▁tokkotu	-2019
▁akkamittan	-2020
▁dubbachuun	-2021
▁bareedduudha	-2022
ook	-2023
▁gub	-2024
iitti	-2025
▁bahu	-2026
▁darbee	-2027
▁keekii	-2028
▁tiraafi	-2029
▁dhuunfaa	-2030
▁gurraacha	-2031
ve	-2032
vi	-2033
kaas	-2034
naan	-2035
▁mis	-2036
▁tele	-2037
▁argamu	-2038
▁beekna	-2039
▁machaa	-2040
▁maraat	-2041
▁yaaduu	-2042
ataniiru	-2043
▁dubbadhu	-2044
▁dubbanne	-2045
▁jiraadha	-2046
▁qabadheen	-2047
▁meeshaalee	-2048
res	-2049
▁adii	-2050
▁eega	-2051
isiisa	-2052
▁dachaa	-2053
▁deemna	-2054
▁dhuguu	-2055
▁tarree	-2056
▁hayyama	-2057
▁hojjedheera	-2058
qq	-2059
amte	-2060
ppaa	-2061
▁fin	-2062
▁saf	-2063
▁bitaa	-2064
▁akaaka	-2065
▁roobaa	-2066
▁yaadne	-2067
▁aanutti	-2068
▁deebiin	-2069
▁deeskii	-2070
▁sirritti	-2071
▁murteesse	-2072
kir	-2073
etti	-2074
mata	-2075
▁chee	-2076
▁cicc	-2077
aaleen	-2078
▁qofatu	-2079
▁baankii	-2080
▁bitadhe	-2081
▁xiyyaaraa	-2082
▁dadhabeera	-2083
oni	-2084
san	-2085
▁re	-2086
▁ut	-2087
edha	-2088
▁aduu	-2089
▁agar	-2090
▁fufe	-2091
▁imal	-2092
▁quuf	-2093
▁sochii	-2094
▁shamarr	-2095
▁barachaa	-2096
▁dhiyeess	-2097
▁gaafatte	-2098
▁tasgabbaa	-2099
▁dinqisiifadha	-2100
▁or	-2101
choo	-2102
▁ilmi	-2103
▁seeraa	-2104
▁bilbile	-2105
▁raawwat	-2106
▁dhufeera	-2107
▁hirribaa	-2108
▁nageenya	-2109
▁piyaanoo	-2110
▁wantoonni	-2111
▁dubbachuuf	-2112
▁dargaggeessa	-2113
roon	-2114
▁qub	-2115
llaan	-2116
▁koma	-2117
▁kufe	-2118
▁wall	-2119
anneen	-2120
▁duuba	-2121
▁kaayy	-2122
▁mijataa	-2123
▁gargaaraa	-2124
▁jaallatti	-2125
▁jijjiirama	-2126
▁magaalattii	-2127
idha	-2128
▁dor	-2129
amtee	-2130
chaan	-2131
gaara	-2132
▁kuta	-2133
▁galuu	-2134
▁ibidd	-2135
▁intal	-2136
▁qaala	-2137
▁dhiyoo	-2138
▁godhaa	-2139
▁sanaan	-2140
▁dhabuun	-2141
▁uffatee	-2142
▁balballi	-2143
▁bilbiluu	-2144
▁gargaara	-2145
▁hospitaala	-2146
rra	-2147
iyoo	-2148
riin	-2149
▁dug	-2150
▁jil	-2151
illee	-2152
▁bahee	-2153
▁gudda	-2154
▁karaan	-2155
▁qabuuf	-2156
▁gammada	-2157
▁qabachuu	-2158
▁sanduuqa	-2159
▁muuxannoo	-2160
▁yaadannoo	-2161
▁car	-2162
▁tuu	-2163
▁xur	-2164
aanii	-2165
attan	-2166
▁cacc	-2167
▁finc	-2168
▁gama	-2169
onitti	-2170
▁keeti	-2171
▁liqii	-2172
▁saandu	-2173
▁torbee	-2174
▁uffatte	-2175
▁karoorri	-2176
▁xiqqaate	-2177
▁liqeessuu	-2178
▁faransaayiin	-2179
ttu	-2180
amuuf	-2181
▁beey	-2182
▁qusa	-2183
▁deemi	-2184
▁eegal	-2185
▁gamoo	-2186
stonitti	-2187
▁duraanis	-2188
inu	-2189
▁baq	-2190
▁dho	-2191
oortii	-2192
▁ogummaa	-2193
▁yaadadha	-2194
▁hiriyoonni	-2195
▁bareedaadha	-2196
▁boostonitti	-2197
▁ijoollummaa	-2198
▁odeeffannoo	-2199
▁z	-2200
ila	-2201
lloo	-2202
uutti	-2203
▁gale	-2204
▁soor	-2205
▁immoo	-2206
irratti	-2207
▁baatee	-2208
▁hangam	-2209
▁argadhu	-2210
▁dadhabe	-2211
▁nyaanne	-2212
▁saanduqa	-2213
▁hojjettee	-2214
▁dhukkubbii	-2215
▁kofalchiis	-2216
ite	-2217
▁19	-2218
jjab	-2219
tira	-2220
▁mak	-2221
▁heer	-2222
▁miliq	-2223
▁rooba	-2224
▁nyaatu	-2225
▁televi	-2226
▁intalti	-2227
▁miilaan	-2228
▁qabuudha	-2229
▁jii	-2230
keetii	-2231
▁yaala	-2232
▁dhagaa	-2233
▁gootan	-2234
▁suukan	-2235
▁carraan	-2236
▁hawwata	-2237
▁koochoo	-2238
▁dhiiseen	-2239
▁jechoota	-2240
▁qorqorroo	-2241
doo	-2242
lle	-2243
▁eege	-2244
▁ibsa	-2245
▁sibii	-2246
▁soogi	-2247
▁dhufte	-2248
▁hatatt	-2249
▁lubbuu	-2250
▁yaadee	-2251
▁kanneen	-2252
▁manneen	-2253
▁qorraan	-2254
▁seenaan	-2255
▁waraana	-2256
▁barnoota	-2257
▁qabeenya	-2258
▁televijiin	-2259
ona	-2260
leen	-2261
tuun	-2262
siise	-2263
▁arga	-2264
▁dorgo	-2265
▁salph	-2266
eessite	-2267
▁caccab	-2268
▁gubbaa	-2269
▁heerum	-2270
▁walgah	-2271
▁anillee	-2272
▁dabarsi	-2273
▁gabaasa	-2274
▁nyaanni	-2275
▁barbaachisaadha	-2276
chif	-2277
▁faar	-2278
▁badii	-2279
▁qaama	-2280
▁rafuu	-2281
▁fakkii	-2282
▁haasaa	-2283
▁umriin	-2284
▁akeekka	-2285
▁hoteela	-2286
▁dubbisaa	-2287
▁qilleensa	-2288
iiz	-2289
▁her	-2290
▁baal	-2291
▁ball	-2292
▁duruu	-2293
▁baasii	-2294
▁ibidda	-2295
▁keetti	-2296
▁fudhatu	-2297
▁dhiisuun	-2298
▁fiilmiin	-2299
▁hundatti	-2300
▁asirratti	-2301
▁yaadachuu	-2302
▁gaafatamummaa	-2303
ela	-2304
siin	-2305
aarri	-2306
▁eegu	-2307
▁laaf	-2308
▁gaaff	-2309
▁gogaa	-2310
▁goonu	-2311
▁walal	-2312
▁borsaa	-2313
▁deebisee	-2314
▁torbanitti	-2315
▁bifa	-2316
▁jaar	-2317
▁gaara	-2318
▁cimaan	-2319
▁soores	-2320
▁yaaddoo	-2321
▁dhaabbata	-2322
▁shamarran	-2323
▁dagadheera	-2324
ce	-2325
qe	-2326
xee	-2327
▁de	-2328
▁ruu	-2329
▁hiyy	-2330
▁sukk	-2331
▁dhiir	-2332
▁bosona	-2333
▁turuun	-2334
▁warraa	-2335
▁daldala	-2336
▁dhaabuu	-2337
▁ilaallu	-2338
▁maatiin	-2339
▁asoosama	-2340
▁fuuldura	-2341
▁qabeessa	-2342
chu	-2343
dir	-2344
isu	-2345
▁hoo	-2346
amuun	-2347
attaa	-2348
▁himu	-2349
▁fidaa	-2350
▁fiduu	-2351
▁roobe	-2352
▁argina	-2353
▁himuuf	-2354
▁kaasee	-2355
▁kollee	-2356
▁turuuf	-2357
▁argitee	-2358
▁koottaa	-2359
▁barachuuf	-2360
▁id	-2361
biin	-2362
▁kut	-2363
▁took	-2364
▁barre	-2365
▁gahuu	-2366
▁ibsuu	-2367
▁deeman	-2368
▁dhukaa	-2369
▁hawwatu	-2370
▁kanatti	-2371
▁lammata	-2372
▁qabamee	-2373
▁taaksii	-2374
▁gidduutti	-2375
▁hojjetame	-2376
▁barbaaddan	-2377
▁tarkaanfii	-2378
ca	-2379
zi	-2380
ish	-2381
▁qam	-2382
▁leen	-2383
▁caala	-2384
▁dugda	-2385
▁eegga	-2386
▁mirga	-2387
▁daakuu	-2388
▁dhaaba	-2389
▁reefuu	-2390
▁turtee	-2391
▁caalaan	-2392
▁filadha	-2393
▁rakkina	-2394
taniittuu	-2395
▁agarsiisa	-2396
▁dhagahamu	-2397
▁dhageenye	-2398
▁dhiheenya	-2399
▁fudhachuuf	-2400
▁garaagarummaa	-2401
sif	-2402
▁oo	-2403
iyee	-2404
▁aanu	-2405
ootaaf	-2406
▁liqim	-2407
▁qabuu	-2408
▁gareen	-2409
▁michuu	-2410
▁roobuu	-2411
▁beektuu	-2412
▁gaafadhu	-2413
▁jabeessa	-2414
▁waliigal	-2415
▁gaarummaa	-2416
▁dhugumatti	-2417
ddu	-2418
man	-2419
▁adab	-2420
▁sadd	-2421
▁baane	-2422
▁utaal	-2423
▁isaati	-2424
▁qabxii	-2425
▁nyaadhu	-2426
▁cimaadha	-2427
▁daandiin	-2428
▁hawwataa	-2429
▁kaffaluu	-2430
▁sagantaa	-2431
ge	-2432
ke	-2433
▁ibs	-2434
▁jar	-2435
▁mad	-2436
▁riq	-2437
umsaa	-2438
▁biyy	-2439
▁dide	-2440
▁olka	-2441
iseera	-2442
▁dhiib	-2443
▁dhimm	-2444
▁himte	-2445
▁ijaan	-2446
▁roobu	-2447
▁aangoo	-2448
▁dorgom	-2449
▁argamne	-2450
▁daabboo	-2451
▁dubbatte	-2452
▁ilaaluuf	-2453
▁jijjiiruu	-2454
aga	-2455
koo	-2456
▁ok	-2457
gaan	-2458
amtii	-2459
iyoon	-2460
▁obsa	-2461
▁herre	-2462
▁sirra	-2463
▁siyaa	-2464
▁amanamaa	-2465
▁nyaachaa	-2466
▁sagaleen	-2467
▁soogidda	-2468
▁dhaabbati	-2469
▁guyyaatti	-2470
▁televijiinii	-2471
car	-2472
arsii	-2473
tichi	-2474
▁adaa	-2475
▁tuff	-2476
▁ollaa	-2477
▁sirna	-2478
▁geenye	-2479
▁hangas	-2480
▁hantuu	-2481
▁qabadhu	-2482
▁yaaddaa	-2483
▁biraatti	-2484
▁eenyuuti	-2485
▁gaazexaa	-2486
▁kanarraa	-2487
▁akkanatti	-2488
tt	-2489
aak	-2490
▁dig	-2491
▁kall	-2492
itaara	-2493
▁oofuu	-2494
▁kottaa	-2495
▁sirbuu	-2496
▁gitaara	-2497
▁gorsite	-2498
▁meeqatu	-2499
▁ofumaan	-2500
▁cirracha	-2501
▁isaaniif	-2502
▁kolleejjii	-2503
▁barumsaatti	-2504
▁dhukkubbiin	-2505
imni	-2506
otaa	-2507
▁loo	-2508
aayil	-2509
▁faal	-2510
▁fiige	-2511
▁gochaa	-2512
▁suuqii	-2513
▁kennine	-2514
▁walaloo	-2515
▁argamuun	-2516
▁lakkoofsi	-2517
▁barattoota	-2518
▁amanamummaa	-2519
▁xiyyeeffannoo	-2520
▁paa	-2521
eenyi	-2522
attiin	-2523
▁cimee	-2524
▁furdaa	-2525
▁kolfaa	-2526
▁saayin	-2527
▁seenuu	-2528
▁jalqabuu	-2529
▁dubbisuun	-2530
▁nyaachuun	-2531
▁yoomiitti	-2532
pe	-2533
▁on	-2534
alaan	-2535
▁morm	-2536
▁baruu	-2537
▁cabse	-2538
▁dhaquu	-2539
▁hamaan	-2540
▁sadiif	-2541
▁dhumaaf	-2542
▁dubbiin	-2543
▁shakkii	-2544
▁achumaan	-2545
▁dhukaasa	-2546
▁waraanaa	-2547
▁yaadadhu	-2548
shiin	-2549
tinaa	-2550
baatti	-2551
▁badaa	-2552
▁faarf	-2553
▁giddu	-2554
▁haroo	-2555
▁hordo	-2556
▁kamtu	-2557
▁rasaa	-2558
ataatti	-2559
fachiis	-2560
▁barruu	-2561
▁dubbii	-2562
▁godhan	-2563
▁kamiin	-2564
▁qabate	-2565
▁ruuzii	-2566
▁miidhaa	-2567
▁hiriyaan	-2568
▁muuziyee	-2569
▁qaroodha	-2570
▁barachuun	-2571
▁isheetiin	-2572
▁konsartii	-2573
▁'	-2574
itu	-2575
▁aa	-2576
▁arr	-2577
▁pil	-2578
▁qon	-2579
iinsa	-2580
▁fayy	-2581
▁hirk	-2582
▁aduun	-2583
▁bidir	-2584
▁chaay	-2585
▁qaroo	-2586
▁ajjeef	-2587
▁amanne	-2588
▁dhuftu	-2589
▁fakkaa	-2590
▁saanii	-2591
▁intalli	-2592
▁kunooti	-2593
▁wallaal	-2594
▁fincaanii	-2595
▁hatattamaan	-2596
ikii	-2597
inee	-2598
▁mal	-2599
isuun	-2600
xaxaa	-2601
▁kuma	-2602
▁taan	-2603
ibaati	-2604
zidaan	-2605
▁baase	-2606
▁duree	-2607
▁harki	-2608
▁samii	-2609
▁qabame	-2610
▁sarara	-2611
▁ummata	-2612
attoonni	-2613
▁gaafadha	-2614
▁raadiyoo	-2615
▁fayyadama	-2616
▁walgahiin	-2617
▁ulfaataadha	-2618
▁waliigaltee	-2619
tni	-2620
▁mich	-2621
▁suph	-2622
▁beell	-2623
▁gurgu	-2624
▁jirru	-2625
▁kudur	-2626
▁lafaa	-2627
▁yaalu	-2628
▁nyaate	-2629
▁dhiibbaa	-2630
▁sooressa	-2631
▁agarsiise	-2632
▁jiraachuun	-2633
▁kompiitara	-2634
▁dogoggoraan	-2635
▁konkolaachisaa	-2636
ku	-2637
jek	-2638
sib	-2639
toob	-2640
▁lola	-2641
teetti	-2642
▁deegg	-2643
▁farda	-2644
▁iskii	-2645
▁bahuun	-2646
▁turtan	-2647
▁beeysib	-2648
▁doktarri	-2649
▁tikeetii	-2650
▁amanachuu	-2651
▁dubbachaa	-2652
▁keenyayyuu	-2653
▁qabadheera	-2654
▁tiraafikaa	-2655
▁kofalchiisu	-2656
▁haasofsiisuu	-2657
irri	-2658
▁kil	-2659
▁tuq	-2660
eensi	-2661
ttiin	-2662
▁raaf	-2663
▁gurra	-2664
▁kanan	-2665
▁qacar	-2666
▁yakka	-2667
▁dhiisi	-2668
▁dubbat	-2669
▁gammade	-2670
▁hubanne	-2671
▁ilaalle	-2672
▁jalatti	-2673
▁ilaalcha	-2674
▁jaalalaa	-2675
▁walxaxaa	-2676
▁waraanni	-2677
▁barbaadan	-2678
▁mallattoo	-2679
?"	-2680
mm	-2681
ro	-2682
raw	-2683
ojek	-2684
tima	-2685
uroo	-2686
▁kii	-2687
▁sak	-2688
isuuf	-2689
▁saax	-2690
▁turu	-2691
▁aarii	-2692
▁beeknu	-2693
▁jajjab	-2694
▁ammatti	-2695
▁ifaadha	-2696
▁pirojek	-2697
▁dubbannu	-2698
▁hangamii	-2699
▁barbaannu	-2700
▁jiraachaa	-2701
bata	-2702
kkaa	-2703
▁uww	-2704
eessu	-2705
isiin	-2706
▁lakki	-2707
▁seenu	-2708
▁wanta	-2709
▁yaali	-2710
ezidaan	-2711
▁geessu	-2712
▁tajaaj	-2713
▁barataa	-2714
▁dhaqeen	-2715
▁ilaalte	-2716
▁simbirr	-2717
▁nyaachis	-2718
▁sukkaara	-2719
▁chaayinaa	-2720
▁fudhachuun	-2721
▁sirreessuu	-2722
▁beeysiboolii	-2723
gu	-2724
lo	-2725
▁20	-2726
okol	-2727
▁haq	-2728
▁xix	-2729
oofne	-2730
yyuun	-2731
▁baga	-2732
▁kraw	-2733
▁paas	-2734
▁bunni	-2735
▁gaabb	-2736
▁ragaa	-2737
▁umrii	-2738
▁urjii	-2739
▁xuraa	-2740
▁awuroo	-2741
▁baraar	-2742
▁jennee	-2743
▁kanatu	-2744
▁tasuma	-2745
▁argattu	-2746
▁kanarra	-2747
▁nyaadha	-2748
▁sakatta	-2749
▁fudhannu	-2750
▁isaatiif	-2751
▁jeequmsa	-2752
▁fakkaataa	-2753
▁injifachuu	-2754
▁pirezidaan	-2755
qo	-2756
sti	-2757
yyii	-2758
▁abda	-2759
▁batt	-2760
▁cabe	-2761
▁diin	-2762
▁falm	-2763
▁qaal	-2764
▁ajaja	-2765
▁chokol	-2766
▁himuun	-2767
▁kabaja	-2768
▁murtii	-2769
▁barumsi	-2770
▁deemtee	-2771
▁dubbise	-2772
▁gammadu	-2773
▁ibiddaa	-2774
▁fudhanne	-2775
▁gaaffiin	-2776
▁hojjetan	-2777
▁qabnedha	-2778
▁sanaatti	-2779
▁dandeessi	-2780
▁kudhaniin	-2781
▁gaafachuuf	-2782
▁gammachiisu	-2783
kti	-2784
noo	-2785
▁cufe	-2786
▁galu	-2787
▁moot	-2788
▁qama	-2789
▁baate	-2790
▁hawwa	-2791
▁jabaa	-2792
▁galata	-2793
▁hoggan	-2794
▁qabdan	-2795
kkeettii	-2796
▁dhuftee	-2797
▁gurbaan	-2798
▁jirutti	-2799
▁taasisa	-2800
▁beellama	-2801
▁dhumeera	-2802
▁xalayaan	-2803
▁agarsiisi	-2804
▁dhalootaa	-2805
▁keenyatti	-2806
▁qabaadhee	-2807
▁bilcheessuu	-2808
▁maariyaamiif	-2809
loo	-2810
nii	-2811
▁gad	-2812
▁ham	-2813
▁oom	-2814
▁bubb	-2815
▁fida	-2816
▁kaaf	-2817
▁kiis	-2818
▁ajjee	-2819
▁baatu	-2820
▁lafti	-2821
▁lamaa	-2822
▁qabat	-2823
attanii	-2824
attoota	-2825
▁dhufan	-2826
▁ifatti	-2827
▁xixiqq	-2828
▁xumura	-2829
▁cufamee	-2830
▁deebisuu	-2831
▁qorannoo	-2832
▁barsiisuu	-2833
▁akaakayyuun	-2834
▁bilcheessuun	-2835
▁dhaggeeffachuu	-2836
luu	-2837
yoon	-2838
iizaa	-2839
ulluu	-2840
▁baat	-2841
▁erge	-2842
▁mata	-2843
▁milk	-2844
▁walq	-2845
▁afeer	-2846
▁dhugu	-2847
▁marga	-2848
▁shaak	-2849
▁argite	-2850
▁awwaal	-2851
▁dhibba	-2852
▁hinaaf	-2853
▁amantaa	-2854
▁bitatte	-2855
▁dhukaas	-2856
▁jedhama	-2857
▁taphata	-2858
▁ulfaata	-2859
▁yookaan	-2860
▁agarsiif	-2861
▁dubbatin	-2862
▁hayyamamu	-2863
▁qabaachuun	-2864
▁gammachiisaa	-2865
ter	-2866
duun	-2867
imaa	-2868
lfii	-2869
eetti	-2870
▁hate	-2871
▁boqqo	-2872
▁safuu	-2873
▁argame	-2874
▁hirmaa	-2875
▁qamisa	-2876
▁seerri	-2877
▁xiyyaa	-2878
▁jiraate	-2879
▁kopheen	-2880
▁meetira	-2881
▁sanarra	-2882
▁seeraan	-2883
▁barattuu	-2884
▁dubbattu	-2885
▁furmaata	-2886
▁godhinaa	-2887
▁dhaabbate	-2888
▁dhiheesse	-2889
▁jaalalaan	-2890
▁obomboleettii	-2891
aw	-2892
▁fee	-2893
▁sek	-2894
aanne	-2895
tonni	-2896
tutti	-2897
▁fide	-2898
▁gahu	-2899
▁ibsi	-2900
▁adeer	-2901
▁galma	-2902
▁ganda	-2903
▁adeera	-2904
▁beekan	-2905
▁ciisee	-2906
▁darbuu	-2907
▁miilli	-2908
▁shakka	-2909
▁tulluu	-2910
▁baranne	-2911
▁duubaan	-2912
▁keetiin	-2913
▁kireeff	-2914
▁nyaadhe	-2915
▁qamadii	-2916
▁soorama	-2917
▁tureera	-2918
▁hundarra	-2919
▁keessumm	-2920
▁uffachuu	-2921
▁barreessa	-2922
▁bilbilaan	-2923
▁boqqolloo	-2924
▁jalqabaaf	-2925
▁dandeessan	-2926
▁tikkeettii	-2927
▁buufataatti	-2928
▁mirkaneeffachuu	-2929
iir	-2930
lii	-2931
eell	-2932
teen	-2933
dhiin	-2934
▁haqa	-2935
▁joon	-2936
▁mars	-2937
▁warq	-2938
tukaan	-2939
▁boona	-2940
▁gadda	-2941
▁kaase	-2942
▁kukii	-2943
▁beekee	-2944
▁eeguun	-2945
▁ibiddi	-2946
▁ittiin	-2947
▁mirgaa	-2948
▁ajjeese	-2949
▁argadha	-2950
▁kaasuun	-2951
▁manatti	-2952
▁uffanni	-2953
▁xumuruu	-2954
▁beekamaa	-2955
▁dogoggor	-2956
▁xumurame	-2957
▁barnootaa	-2958
▁bashannan	-2959
▁hiyyeessa	-2960
▁mirkaneessuu	-2961
▁dhaggeeffachaa	-2962
ibu	-2963
aguu	-2964
reen	-2965
▁gag	-2966
▁gib	-2967
ondii	-2968
▁badh	-2969
▁maam	-2970
▁shee	-2971
eetiin	-2972
varsii	-2973
▁maraa	-2974
▁waaqa	-2975
▁baasee	-2976
▁battal	-2977
▁cimtee	-2978
anneerra	-2979
▁adeerri	-2980
▁carraaq	-2981
▁fedhiin	-2982
▁galaana	-2983
▁saffisa	-2984
▁jedhanii	-2985
▁miillaan	-2986
▁akkaataan	-2987
▁mudateera	-2988
▁xumureera	-2989
▁awurooppaa	-2990
▁jaallattan	-2991
▁fuulduratti	-2992
▁keessanitti	-2993
▁suukaneessaa	-2994
▁obomboleettiin	-2995
ed	-2996
dde	-2997
kni	-2998
▁kol	-2999
iimii	-3000
manii	-3001
annaan	-3002
eessee	-3003
▁fufuu	-3004
▁odola	-3005
▁bittaa	-3006
▁dhiisu	-3007
▁kiisha	-3008
▁mannaa	-3009
▁murtaa	-3010
▁biratti	-3011
▁burjaaj	-3012
▁guddina	-3013
▁qorichi	-3014
▁ayyaanni	-3015
▁barsiisa	-3016
▁caaludha	-3017
▁deebitee	-3018
▁kamiinuu	-3019
▁kanaadaa	-3020
▁lamaanuu	-3021
▁sekondii	-3022
▁teessoon	-3023
▁xumuruuf	-3024
▁burtukaan	-3025
▁bineensota	-3026
▁bishaaniin	-3027
▁gargaaruun	-3028
▁nuffisiisaa	-3029
▁dhageessanii	-3030
ger	-3031
hin	-3032
aamp	-3033
lakk	-3034
▁haw	-3035
▁bare	-3036
▁boba	-3037
▁butt	-3038
▁kute	-3039
▁barii	-3040
▁biyyaa	-3041
▁idilee	-3042
▁mindaa	-3043
▁qabatu	-3044
▁qullaa	-3045
▁waldaa	-3046
▁deemnee	-3047
▁dhugaan	-3048
▁hundaan	-3049
▁kaayyoo	-3050
▁magarii	-3051
▁rifeensi	-3052
▁tarkaanf	-3053
▁yaaleera	-3054
▁dulloomaa	-3055
▁dabalataan	-3056
▁ce	-3057
izii	-3058
aalli	-3059
▁alag	-3060
▁bool	-3061
▁digd	-3062
▁fokk	-3063
▁gool	-3064
▁jarr	-3065
▁kuuf	-3066
▁buruu	-3067
▁diina	-3068
▁ofuma	-3069
▁qofti	-3070
▁tolle	-3071
▁dhaqee	-3072
▁dhibaa	-3073
▁jedhan	-3074
atteetti	-3075
▁baradhe	-3076
▁dabalaa	-3077
▁fuudhuu	-3078
▁goolfii	-3079
▁jarreen	-3080
▁keenyaa	-3081
▁rakkisa	-3082
▁taphatu	-3083
▁waggaan	-3084
▁gaggeeff	-3085
▁hordofuu	-3086
▁michoota	-3087
▁xiyyaara	-3088
▁ciisichaa	-3089
▁fudhadhaa	-3090
▁hammaataa	-3091
▁ispoortii	-3092
▁kaameeraa	-3093
▁krawattii	-3094
▁maashinii	-3095
▁qabachuuf	-3096
▁xiyyaarri	-3097
▁agarsiisuu	-3098
▁akkasumaan	-3099
▁baradheera	-3100
▁jijjiirame	-3101
▁dhukkubsattee	-3102
gii	-3103
ibe	-3104
maat	-3105
saaf	-3106
ziin	-3107
▁bab	-3108
▁bad	-3109
▁kib	-3110
ataaf	-3111
lakki	-3112
▁ciif	-3113
▁duum	-3114
▁jilb	-3115
▁utuu	-3116
ooniin	-3117
▁godhi	-3118
▁haguu	-3119
▁kilab	-3120
▁kunis	-3121
▁paasp	-3122
siisuuf	-3123
▁beekaa	-3124
▁funyoo	-3125
▁bidiruu	-3126
▁dandama	-3127
▁duratti	-3128
▁hayyamu	-3129
▁darbeera	-3130
▁eeggadha	-3131
▁kufaatii	-3132
▁tilmaame	-3133
▁tokkodha	-3134
▁tookiyoo	-3135
▁dhiironni	-3136
▁dorgommii	-3137
▁fayyadamu	-3138
▁maallaqaa	-3139
▁shubbisuu	-3140
▁buruushiin	-3141
▁guutameera	-3142
▁yeroodhaan	-3143
he	-3144
eey	-3145
▁10	-3146
duuf	-3147
faan	-3148
fame	-3149
iree	-3150
▁vii	-3151
amiin	-3152
iinii	-3153
▁bitu	-3154
▁lall	-3155
▁malu	-3156
▁shor	-3157
immaan	-3158
▁aadaa	-3159
▁dhaqe	-3160
▁madaa	-3161
▁weell	-3162
▁argatu	-3163
▁dafnee	-3164
▁fiiguu	-3165
▁nagaan	-3166
▁cheezii	-3167
▁jedhamu	-3168
▁nyaannu	-3169
▁olaanaa	-3170
▁dhiphina	-3171
▁saffisaa	-3172
▁argateera	-3173
▁eenyullee	-3174
▁gargaarsi	-3175
▁guddachaa	-3176
▁konkolaat	-3177
▁mootummaa	-3178
▁shubbisaa	-3179
▁waajjirri	-3180
▁dhiyeessii	-3181
▁taphachuun	-3182
▁tilmaamuun	-3183
▁barreeffama	-3184
▁xiyyeeffannaa	-3185
et	-3186
ss	-3187
▁3	-3188
vii	-3189
▁un	-3190
atni	-3191
▁abd	-3192
▁ele	-3193
atame	-3194
ddoon	-3195
▁dhoo	-3196
▁kala	-3197
▁orom	-3198
▁paan	-3199
▁cidha	-3200
▁cufaa	-3201
▁dhuga	-3202
▁oduun	-3203
▁rafaa	-3204
▁uwwif	-3205
▁dhoksaa	-3206
▁guutuun	-3207
▁kaffala	-3208
▁saddeet	-3209
▁imimmaan	-3210
▁saantima	-3211
▁hubachuun	-3212
▁loltoonni	-3213
▁dubartoota	-3214
▁hojjetamuu	-3215
ji	-3216
▁li	-3217
amtu	-3218
▁qus	-3219
▁tee	-3220
aatoo	-3221
chiif	-3222
eenyu	-3223
sanii	-3224
▁dhib	-3225
▁muda	-3226
▁shaw	-3227
aannee	-3228
atamne	-3229
▁baasu	-3230
▁cufuu	-3231
▁dhuge	-3232
▁abjuun	-3233
▁button	-3234
▁jiruuf	-3235
▁kolfuu	-3236
▁baasuun	-3237
▁dubbisa	-3238
▁nyaattu	-3239
▁saawwan	-3240
▁suuraan	-3241
▁turetti	-3242
▁fudhadhe	-3243
▁hojjenna	-3244
▁siyaasaa	-3245
▁xixiqqoo	-3246
▁dhaabatee	-3247
▁hogganaan	-3248
▁kitaabonni	-3249
▁harkifachuu	-3250
▁dhukkubsatee	-3251
▁maariyaamitti	-3252
buu	-3253
soo	-3254
tama	-3255
teef	-3256
▁abuk	-3257
▁beel	-3258
▁daay	-3259
▁gamm	-3260
▁haar	-3261
▁qaam	-3262
▁cabee	-3263
▁fanni	-3264
▁deemin	-3265
▁dhaabe	-3266
▁dhiiga	-3267
▁eeyyee	-3268
▁galchi	-3269
▁hiikuu	-3270
▁qabnaa	-3271
▁saaxil	-3272
▁balalii	-3273
▁dagadhe	-3274
▁deemtaa	-3275
▁qabudha	-3276
▁baaburaa	-3277
▁chaappaa	-3278
▁dubbadha	-3279
▁fageenya	-3280
▁fiigicha	-3281
▁liqeesse	-3282
▁barbaaduu	-3283
▁dhiqannaa	-3284
▁barbaadeen	-3285
▁daawwachuu	-3286
▁barreeffame	-3287
▁qaxxaamuree	-3288
ita	-3289
ksi	-3290
tis	-3291
▁ay	-3292
amti	-3293
dhuu	-3294
sinee	-3295
▁qoon	-3296
▁soof	-3297
▁yeen	-3298
ametti	-3299
▁eegne	-3300
▁waraa	-3301
▁boolla	-3302
▁deebif	-3303
▁garaan	-3304
▁guutee	-3305
▁madaal	-3306
▁miirri	-3307
▁dhiigaa	-3308
▁shawaar	-3309
▁uffadhu	-3310
▁ulfaate	-3311
▁adaadaan	-3312
▁beeksisa	-3313
▁beekutti	-3314
▁gargaare	-3315
▁hordofaa	-3316
▁dhukkubni	-3317
▁jechuudha	-3318
▁kunuunsuu	-3319
▁carraaqqii	-3320
▁faarfannaa	-3321
▁gaafachuun	-3322
▁murteesseen	-3323
▁sodaachisaa	-3324
oomi	-3325
rraa	-3326
▁dil	-3327
▁gee	-3328
aanna	-3329
aniif	-3330
tanne	-3331
▁bane	-3332
eessan	-3333
eeyyee	-3334
maanni	-3335
▁arrab	-3336
▁hubatu	-3337
▁maalii	-3338
▁oromoo	-3339
▁warqee	-3340
▁deeggar	-3341
▁dhalate	-3342
▁dhuftan	-3343
▁dubbisu	-3344
▁dukkana	-3345
▁eegalee	-3346
▁funyaan	-3347
▁galmaan	-3348
▁kunneen	-3349
▁riqichi	-3350
▁dadhabde	-3351
▁dhagahuu	-3352
▁dubbatan	-3353
▁hantuuta	-3354
▁ingiliff	-3355
▁jaalanne	-3356
▁shamizii	-3357
▁bishaanii	-3358
▁daraaraan	-3359
▁fudhatama	-3360
▁gaddisiisa	-3361
▁dubartoonni	-3362
▁akeekkachiis	-3363
ixa	-3364
ooma	-3365
▁quu	-3366
▁tom	-3367
▁sobe	-3368
▁tura	-3369
aansii	-3370
aartii	-3371
isiisu	-3372
iyoona	-3373
teetta	-3374
tootaa	-3375
ummiin	-3376
▁darbu	-3377
▁dhaba	-3378
▁duraa	-3379
▁kaadh	-3380
▁morma	-3381
▁muraa	-3382
▁onnee	-3383
eessaan	-3384
▁aartii	-3385
▁alagaa	-3386
▁barame	-3387
▁cimsee	-3388
▁gaazex	-3389
▁gamoon	-3390
▁gannaa	-3391
▁lamaaf	-3392
▁piizaa	-3393
▁tolchi	-3394
▁deebitu	-3395
▁herrega	-3396
▁kaansar	-3397
▁mudatee	-3398
▁qabaman	-3399
▁waaqayy	-3400
▁dhabeera	-3401
▁dubbatta	-3402
▁hojjennu	-3403
▁jalqabnu	-3404
▁rakkisuu	-3405
▁viidiyoo	-3406
▁dhangalaa	-3407
▁dubartiin	-3408
▁jaallatta	-3409
▁teenisiin	-3410
▁akaakayyuu	-3411
▁barumsichaa	-3412
▁kompiitarri	-3413
aaw	-3414
ani	-3415
▁30	-3416
▁lo	-3417
eraa	-3418
tota	-3419
▁alk	-3420
▁lif	-3421
▁xin	-3422
famee	-3423
iitii	-3424
oojii	-3425
▁fufi	-3426
chifne	-3427
▁aanaa	-3428
▁furuu	-3429
▁galte	-3430
▁jechi	-3431
▁marii	-3432
▁mukaa	-3433
▁oofaa	-3434
▁otoob	-3435
ineerra	-3436
▁dhohin	-3437
▁dirqis	-3438
▁furuuf	-3439
▁gaabba	-3440
▁jechaa	-3441
▁shaamp	-3442
▁sobduu	-3443
▁tolche	-3444
▁yaalii	-3445
▁argatta	-3446
▁borsaan	-3447
▁kaartaa	-3448
▁lallaaf	-3449
▁miidhuu	-3450
▁sirnaan	-3451
▁taasise	-3452
eessaadha	-3453
ibsiifate	-3454
▁ajjeesuu	-3455
▁muraasni	-3456
▁qabaadhu	-3457
▁qisaases	-3458
▁taphadha	-3459
▁dubbisuuf	-3460
▁fudhachaa	-3461
▁jaallatan	-3462
▁kanaafidha	-3463
▁murteessuu	-3464
▁daawwachuuf	-3465
▁dandamachuu	-3466
wii	-3467
▁pi	-3468
umsi	-3469
xaba	-3470
▁kor	-3471
▁kur	-3472
▁kuu	-3473
itara	-3474
▁eebb	-3475
▁jaha	-3476
▁kaka	-3477
▁maan	-3478
▁afuuf	-3479
▁ajaje	-3480
▁argan	-3481
▁garba	-3482
▁rafee	-3483
▁seena	-3484
▁eeguuf	-3485
▁kaasuu	-3486
▁mudatu	-3487
▁qajeel	-3488
▁waxaba	-3489
kiriimii	-3490
▁dhadhaa	-3491
▁gabatee	-3492
▁hubadhe	-3493
▁masaraa	-3494
▁tolchuu	-3495
▁yaaleen	-3496
▁banaadha	-3497
▁dursitee	-3498
▁fokkisaa	-3499
▁nyaadhee	-3500
▁ajjeesuuf	-3501
▁barreessu	-3502
▁hojiirraa	-3503
▁kompitara	-3504
▁magariisa	-3505
▁bitadheera	-3506
▁fakkaachuu	-3507
▁qurxummiin	-3508
ts	-3509
ber	-3510
jji	-3511
isee	-3512
▁boh	-3513
▁adam	-3514
▁giif	-3515
▁ijji	-3516
isiise	-3517
▁dafii	-3518
▁darba	-3519
▁sadan	-3520
▁sunis	-3521
aayilii	-3522
▁argata	-3523
▁baraan	-3524
▁barate	-3525
▁birraa	-3526
▁dhabne	-3527
▁fiigaa	-3528
▁fiixee	-3529
▁kiiloo	-3530
▁baasuuf	-3531
▁baradha	-3532
▁dambali	-3533
▁qajeelf	-3534
▁xumurre	-3535
▁barsiise	-3536
▁biyyoota	-3537
▁injifate	-3538
▁keenyaaf	-3539
▁qabattee	-3540
▁dirqisiis	-3541
▁eeggadhaa	-3542
▁fakkaattu	-3543
attaniittuu	-3544
▁keessattin	-3545
▁kuduraalee	-3546
▁pirojektii	-3547
▁waxabajjii	-3548
▁yaabbachuu	-3549
▁gaddisiisaa	-3550
▁paaspoortii	-3551
▁dhaabbatichi	-3552
▁simbirroonni	-3553
ay	-3554
ki	-3555
gni	-3556
ggaa	-3557
mail	-3558
riif	-3559
uune	-3560
▁qux	-3561
araan	-3562
▁alar	-3563
▁hool	-3564
▁jaam	-3565
▁sada	-3566
▁taat	-3567
▁dheeb	-3568
▁erguu	-3569
▁gorse	-3570
▁inter	-3571
▁jenne	-3572
▁kanas	-3573
▁kolfa	-3574
▁komii	-3575
eenyaan	-3576
▁dhihaa	-3577
▁ilmaan	-3578
▁kakaas	-3579
▁liqimf	-3580
▁maamil	-3581
▁dhuguuf	-3582
▁faallaa	-3583
▁galchuu	-3584
▁jilbeen	-3585
▁hammamii	-3586
▁hayyamuu	-3587
▁jijjiiru	-3588
▁kunuunsa	-3589
▁yakkamaa	-3590
▁mufachiis	-3591
▁isaaniitti	-3592
▁jaallachuu	-3593
▁meeshaaleen	-3594
▁biskileetiin	-3595
▁dargaggoonni	-3596
▁qulqulluudha	-3597
el	-3598
xe	-3599
arri	-3600
elaa	-3601
ameef	-3602
ksiin	-3603
▁dibe	-3604
▁dibu	-3605
▁heey	-3606
▁dursa	-3607
▁gaafa	-3608
▁hadoo	-3609
▁halee	-3610
▁himtu	-3611
▁jilba	-3612
▁kolfe	-3613
▁rafne	-3614
aateera	-3615
▁dhandh	-3616
▁gabaab	-3617
▁geesse	-3618
▁hidhii	-3619
▁hubate	-3620
▁jaarsi	-3621
▁sigaar	-3622
▁taasif	-3623
▁xinnoo	-3624
▁argitan	-3625
▁baradhu	-3626
▁dhaquuf	-3627
▁gahumsa	-3628
▁guutame	-3629
▁kaadhim	-3630
▁walumaa	-3631
▁xiqqaan	-3632
▁xuuxuun	-3633
▁alkoolii	-3634
▁cimsitee	-3635
▁eeggadhu	-3636
▁fagoodha	-3637
▁fagootti	-3638
▁gaafanne	-3639
▁hojiirra	-3640
▁miidhame	-3641
▁tiraafik	-3642
▁ajjeechaa	-3643
▁bohaartii	-3644
▁tokkoffaa	-3645
▁bashannana	-3646
▁jalqabeera	-3647
▁sp	-3648
▁shu	-3649
atamu	-3650
imman	-3651
▁bahe	-3652
▁paay	-3653
▁rafa	-3654
▁ulee	-3655
▁abjoo	-3656
▁ammoo	-3657
▁jaakk	-3658
▁lagni	-3659
▁mudat	-3660
eessine	-3661
▁amalli	-3662
▁beelof	-3663
▁dhabee	-3664
▁dhiisa	-3665
▁dhorke	-3666
▁duukaa	-3667
▁gabaas	-3668
▁qabsaa	-3669
▁soofaa	-3670
▁taphaa	-3671
▁barsiif	-3672
▁bitanne	-3673
▁daangaa	-3674
▁dhufuuf	-3675
▁dilbata	-3676
▁meeriif	-3677
▁burjaaja	-3678
▁callisee	-3679
▁dhukkube	-3680
▁dubbanna	-3681
▁dureessa	-3682
▁jilbeenf	-3683
▁maayilii	-3684
▁nyaattan	-3685
▁abukaatoo	-3686
▁addunyaan	-3687
▁bilbilame	-3688
▁fakkaatti	-3689
▁fuulduraa	-3690
▁harkifate	-3691
▁hojjetamu	-3692
▁jaallanne	-3693
▁kaleessaa	-3694
▁milkoofne	-3695
▁qorannoon	-3696
▁gammachuun	-3697
▁kallattiin	-3698
▁lammiileen	-3699
▁guddaadhaan	-3700
▁kofalchiisa	-3701
▁jaallatamaadha	-3702
ver	-3703
dina	-3704
waan	-3705
▁chi	-3706
▁gir	-3707
aasii	-3708
ichis	-3709
▁anga	-3710
▁araa	-3711
▁baqa	-3712
▁hanq	-3713
▁ibsu	-3714
▁qabe	-3715
▁qora	-3716
atamuu	-3717
neetii	-3718
▁bilis	-3719
▁duras	-3720
▁email	-3721
▁miicc	-3722
▁qubee	-3723
▁ciisuu	-3724
▁dhufee	-3725
▁dhufta	-3726
▁haarom	-3727
▁jabina	-3728
▁seenin	-3729
▁yaaltu	-3730
▁amantii	-3731
▁bittaaf	-3732
▁dhuguun	-3733
▁jedhiin	-3734
▁kennuuf	-3735
▁yaaduun	-3736
▁dhaladhe	-3737
▁duumessa	-3738
▁filachuu	-3739
▁gammadaa	-3740
▁jedhamee	-3741
▁kenneera	-3742
▁marsarii	-3743
▁qabsiise	-3744
▁akkasumas	-3745
▁fakkeenya	-3746
▁gadhiisuu	-3747
▁galatoomi	-3748
▁yaaddessa	-3749
▁balaadhaaf	-3750
▁bilcheessi	-3751
▁nuffisiisa	-3752
▁qajeelfama	-3753
▁eeggannoodhaan	-3754
zz	-3755
▁ne	-3756
isan	-3757
▁lan	-3758
▁yuu	-3759
kanii	-3760
siisu	-3761
▁qaan	-3762
▁sany	-3763
▁suuq	-3764
atanii	-3765
chisee	-3766
ootaan	-3767
▁baqaq	-3768
▁fudur	-3769
▁galch	-3770
▁jibbu	-3771
▁sofaa	-3772
▁amanam	-3773
▁beekti	-3774
▁dhabde	-3775
▁eebbif	-3776
▁jaamaa	-3777
▁maangu	-3778
▁samiin	-3779
▁yaalne	-3780
▁beekuun	-3781
▁dhufuun	-3782
▁dooniin	-3783
▁eenyuun	-3784
▁hirmaat	-3785
▁sodaate	-3786
varsiitii	-3787
▁dheeraan	-3788
▁fuudhuuf	-3789
▁hadoochu	-3790
▁halkanii	-3791
▁hedduutu	-3792
▁hubannoo	-3793
▁irrattis	-3794
▁jarmanii	-3795
▁kabajuuf	-3796
▁laafessa	-3797
▁miidhaan	-3798
▁raawwate	-3799
▁sigaaraa	-3800
▁waamicha	-3801
▁asoosamni	-3802
▁baratamne	-3803
▁barbaaddi	-3804
▁barruulee	-3805
▁filannoon	-3806
▁gammaddan	-3807
▁gurgurtaa	-3808
▁kallattii	-3809
▁rakkachaa	-3810
▁simbirroo	-3811
▁kaffaltiin	-3812
▁taphachuuf	-3813
▁barreessaan	-3814
▁chokoleetii	-3815
▁gammachiise	-3816
▁gargaareera	-3817
▁ilaalchisee	-3818
▁jijjiiramni	-3819
▁qaxxaamuraa	-3820
▁barbaachifne	-3821
▁dargaggummaa	-3822
▁hojjetteetta	-3823
▁hojjettoonni	-3824
▁qulqullummaa	-3825
▁xiyyaaraatti	-3826
▁garaagarummaan	-3827
000	-3828
kuw	-3829
les	-3830
▁gog	-3831
▁siq	-3832
atama	-3833
bilii	-3834
ddeeb	-3835
▁firi	-3836
▁geen	-3837
▁suur	-3838
▁dhala	-3839
▁falma	-3840
▁gorsi	-3841
▁kadha	-3842
▁marar	-3843
▁torba	-3844
▁waldh	-3845
galatti	-3846
▁adaraa	-3847
▁banuun	-3848
▁dhimmi	-3849
▁hidham	-3850
▁himtee	-3851
▁jiidha	-3852
▁landan	-3853
▁barumsa	-3854
▁deddeeb	-3855
▁eenyuuf	-3856
▁ittisuu	-3857
▁keelloo	-3858
▁miiccaa	-3859
▁yaadame	-3860
▁yaaddee	-3861
▁argachaa	-3862
▁buufatni	-3863
▁dhiisuuf	-3864
▁fudhattu	-3865
▁ilaalamu	-3866
▁jijjiire	-3867
▁jiraadhu	-3868
▁keenyaan	-3869
▁komachuu	-3870
▁sirratti	-3871
▁bilbiluun	-3872
▁biraatiin	-3873
▁dhiqachuu	-3874
▁jalqabuuf	-3875
▁kompiitar	-3876
▁meeriitti	-3877
▁muuziqaan	-3878
▁qophiidha	-3879
▁weellisaa	-3880
▁xumuramuu	-3881
▁dubbiseera	-3882
▁mootummaan	-3883
▁qorqorroon	-3884
▁dulloomeera	-3885
▁muuziyeemii	-3886
▁yaadachiisa	-3887
ps	-3888
wa	-3889
per	-3890
▁ju	-3891
,000	-3892
ggii	-3893
▁qin	-3894
▁vaa	-3895
alaqq	-3896
▁diig	-3897
▁ibse	-3898
▁kaaz	-3899
▁kurn	-3900
eenyaa	-3901
ooftaa	-3902
tistii	-3903
▁duute	-3904
▁eegdu	-3905
▁hiike	-3906
▁sirbi	-3907
▁hatame	-3908
▁ilaali	-3909
▁summii	-3910
▁amanuun	-3911
▁dagadhu	-3912
▁filadhu	-3913
▁himeera	-3914
▁jalqabu	-3915
▁midhaan	-3916
▁qabneef	-3917
▁xiyyaar	-3918
▁yaaddan	-3919
▁badhaasa	-3920
▁duraanuu	-3921
▁gahaadha	-3922
▁galgalaa	-3923
▁jaalalli	-3924
▁kaameraa	-3925
▁kuufamaa	-3926
▁nageenyi	-3927
▁qabadhaa	-3928
▁rukutame	-3929
▁sodaadhu	-3930
▁yaadattu	-3931
▁boqonnaan	-3932
▁lallaafaa	-3933
▁ooltummaa	-3934
▁saayinsii	-3935
▁baqaqsanii	-3936
▁dhaabbanni	-3937
▁dhungachuu	-3938
▁raawwachuu	-3939
▁raawwatame	-3940
▁bineensonni	-3941
▁sirreessuuf	-3942
▁qulqulleessi	-3943
▁walumaagalatti	-3944
id	-3945
bni	-3946
hee	-3947
omm	-3948
▁ro	-3949
eeti	-3950
▁jah	-3951
▁lab	-3952
a	-3953
▁	-3954
i	-3955
e	-3956
n	-3957
u	-3958
t	-3959
o	-3960
r	-3961
k	-3962
d	-3963
h	-3964
s	-3965
m	-3966
b	-3967
.	-3968
l	-3969
g	-3970
f	-3971
y	-3972
j	-3973
q	-3974
'	-3975
c	-3976
w	-3977
?	-3978
p	-3979
x	-3980
,	-3981
ʼ	-3982
z	-3983
’	-3984
"	-3985
v	-3986
!	-3987
0	-3988
1	-3989
3	-3990
T	-3991
2	-3992
A	-3993
-	-3994
9	-3995
